<unk>	0
<s>	0
</s>	0
▁	-2.28048
▁the	-2.98702
▁N	-3.49741
▁of	-3.78374
▁to	-3.7937
▁a	-3.79933
s	-3.98315
▁in	-4.07193
▁and	-4.1187
.	-4.16032
▁'	-4.58386
▁for	-4.77876
▁that	-4.7894
ing	-4.93192
$	-4.93231
▁is	-4.99198
▁it	-5.15588
▁said	-5.18257
-	-5.24198
▁on	-5.25039
▁be	-5.30396
ed	-5.36903
▁by	-5.38696
▁with	-5.39058
▁at	-5.41043
▁from	-5.42593
t	-5.43859
▁million	-5.44026
▁as	-5.47181
▁mr	-5.47692
▁was	-5.57429
▁are	-5.61969
y	-5.63057
'	-5.64024
▁n	-5.65585
▁its	-5.65745
▁he	-5.68611
▁but	-5.71052
▁has	-5.71844
▁an	-5.73476
▁will	-5.78869
▁have	-5.79961
ly	-5.85234
▁new	-5.89575
▁company	-5.99111
▁or	-5.99645
▁year	-6.01648
▁this	-6.08826
▁which	-6.11691
▁would	-6.13697
▁u	-6.17541
▁about	-6.18154
d	-6.20526
▁more	-6.21375
▁says	-6.24672
▁market	-6.24749
▁were	-6.28189
▁billion	-6.32612
▁one	-6.33672
▁up	-6.34959
▁who	-6.35233
▁had	-6.36392
▁his	-6.36645
▁their	-6.36751
▁stock	-6.39956
▁some	-6.40318
▁than	-6.42858
▁been	-6.46882
lso	-6.51291
▁other	-6.51683
▁share	-6.5548
▁not	-6.55932
▁corp	-6.58694
▁we	-6.61623
▁inc	-6.66204
▁i	-6.67093
&	-6.68467
▁when	-6.7241
▁president	-6.72829
▁two	-6.72849
▁last	-6.73015
▁if	-6.73224
▁co	-6.73709
▁all	-6.77684
▁shares	-6.77902
▁first	-6.7803
cause	-6.79347
▁years	-6.79749
▁after	-6.81788
▁trading	-6.83541
▁could	-6.85168
▁sales	-6.85337
▁over	-6.90225
▁do	-6.91217
▁there	-6.92437
▁out	-6.94123
▁business	-6.94411
▁can	-6.94832
▁most	-6.95109
▁may	-6.95661
▁only	-6.96378
▁such	-6.96921
▁york	-6.97815
▁no	-6.98089
▁into	-7.02888
▁so	-7.03177
▁group	-7.04001
▁many	-7.06132
▁bank	-7.07837
▁government	-7.0785
▁federal	-7.09815
▁now	-7.11027
▁companies	-7.1187
n	-7.12336
e	-7.12543
▁quarter	-7.12849
al	-7.13078
▁time	-7.13374
▁cents	-7.1724
▁any	-7.18222
▁exchange	-7.18588
se	-7.19025
▁what	-7.19515
▁people	-7.20007
▁you	-7.20508
▁under	-7.20765
▁even	-7.21967
▁price	-7.22087
▁down	-7.22138
▁prices	-7.23749
▁say	-7.23967
st	-7.2556
▁investors	-7.2573
▁buy	-7.26137
▁rose	-7.26846
▁unit	-7.27008
▁while	-7.28089
▁week	-7.29313
▁interest	-7.29483
▁three	-7.2983
▁much	-7.29953
▁yesterday	-7.30526
a	-7.30738
▁securities	-7.31643
▁again	-7.32679
▁big	-7.3277
▁state	-7.32923
▁months	-7.33463
▁bonds	-7.3588
▁next	-7.36209
▁them	-7.37954
▁through	-7.38308
▁make	-7.39199
▁third	-7.39605
▁financial	-7.40356
▁investment	-7.40617
▁net	-7.41194
▁earnings	-7.41635
▁major	-7.41638
▁american	-7.41763
▁earlier	-7.43068
▁chairman	-7.43373
▁she	-7.43948
▁program	-7.44056
out	-7.44475
▁did	-7.44685
▁get	-7.45398
▁board	-7.45958
▁industry	-7.46415
▁chief	-7.47019
▁still	-7.47368
▁executive	-7.47394
▁just	-7.47912
▁money	-7.48552
▁back	-7.48742
▁high	-7.48915
▁rate	-7.49488
▁since	-7.49873
▁before	-7.51583
▁house	-7.51918
▁like	-7.51943
▁stocks	-7.52215
▁capital	-7.52935
▁made	-7.52948
▁national	-7.53713
▁officials	-7.54211
▁part	-7.54438
▁b	-7.54545
ng	-7.57541
re	-7.57678
▁analysts	-7.58421
▁profit	-7.58663
▁month	-7.5892
▁expected	-7.58961
▁well	-7.59461
▁plan	-7.59691
▁off	-7.60323
▁sell	-7.60589
▁japanese	-7.62036
▁days	-7.62037
▁does	-7.62561
▁rates	-7.62926
able	-7.63411
▁long	-7.63492
er	-7.64648
▁world	-7.64712
▁al	-7.65212
▁between	-7.65504
▁firm	-7.65888
▁both	-7.66013
▁accord	-7.66825
▁income	-7.66836
▁th	-7.67265
▁issue	-7.67875
▁recent	-7.68473
▁revenue	-7.69131
▁average	-7.69244
▁general	-7.70354
▁her	-7.71125
▁congress	-7.71197
▁own	-7.71582
▁products	-7.72421
▁tax	-7.73516
▁funds	-7.73693
▁should	-7.73694
▁international	-7.73919
▁court	-7.73999
▁computer	-7.75342
▁japan	-7.75837
▁includ	-7.75876
▁offer	-7.75884
▁ago	-7.75963
▁debt	-7.7603
m	-7.763
▁another	-7.76325
▁fell	-7.76485
▁take	-7.7663
▁higher	-7.77239
▁reported	-7.77728
▁markets	-7.78246
▁total	-7.78379
▁index	-7.79324
▁trade	-7.80179
▁each	-7.80236
▁work	-7.80741
▁yield	-7.81051
▁few	-7.81798
▁lower	-7.82099
▁foreign	-7.82142
▁real	-7.82958
▁way	-7.83116
▁pay	-7.83141
▁department	-7.83355
▁economic	-7.83813
▁past	-7.83851
es	-7.84096
▁operations	-7.84164
▁five	-7.84284
▁being	-7.8437
▁sale	-7.84394
ose	-7.8474
▁end	-7.85499
▁report	-7.85535
▁however	-7.85706
▁how	-7.8598
▁amo	-7.86054
▁our	-7.86786
quarter	-7.87142
vice	-7.87231
year	-7.87681
▁law	-7.87755
▁common	-7.87803
▁put	-7.87908
▁large	-7.87959
▁less	-7.8805
ve	-7.88389
▁go	-7.88506
▁increase	-7.8856
very	-7.88594
▁closed	-7.88787
▁plans	-7.88805
▁dur	-7.88849
▁sold	-7.89213
▁insurance	-7.89581
▁m	-7.89607
▁growth	-7.89628
▁un	-7.89988
▁help	-7.9057
▁several	-7.91142
▁san	-7.9116
▁bill	-7.91578
▁second	-7.91697
▁good	-7.9213
▁where	-7.92497
▁d	-7.92735
▁bid	-7.93075
▁yen	-7.93826
▁bush	-7.93947
▁issues	-7.94124
▁current	-7.94804
▁banks	-7.94834
▁loss	-7.95273
▁public	-7.95386
▁fund	-7.95625
▁due	-7.95635
▁think	-7.95845
▁small	-7.96259
▁day	-7.9644
▁management	-7.96649
▁power	-7.96654
▁concern	-7.97435
▁oil	-7.97504
▁far	-7.97509
▁bond	-7.97781
▁cash	-7.97967
an	-7.98515
▁used	-7.98535
▁system	-7.98596
▁director	-7.98902
▁t	-7.99163
▁might	-7.99342
▁cost	-7.99515
▁friday	-7.99617
▁treasury	-7.99647
▁home	-8.00049
on	-8.00179
▁costs	-8.00252
▁office	-8.00738
ther	-8.00826
▁traders	-8.0113
▁six	-8.01563
▁contract	-8.01705
▁value	-8.02314
▁south	-8.0235
▁early	-8.02481
▁added	-8.02587
▁futures	-8.02847
▁four	-8.0298
▁california	-8.03003
▁city	-8.03085
▁officer	-8.03344
▁number	-8.03793
▁show	-8.04043
▁see	-8.04202
▁former	-8.04586
▁use	-8.04607
▁late	-8.04836
▁already	-8.05316
▁least	-8.05635
▁operating	-8.05937
▁assets	-8.06155
▁him	-8.06194
▁spokesman	-8.062
▁case	-8.06218
▁agency	-8.06491
▁british	-8.06786
▁credit	-8.07372
▁look	-8.07695
▁close	-8.07904
▁september	-8.08288
▁union	-8.08375
▁stake	-8.08383
▁result	-8.08534
▁same	-8.08659
▁oct	-8.08881
▁support	-8.08899
▁street	-8.08979
▁research	-8.0974
▁us	-8.09907
▁p	-8.10157
▁include	-8.10316
▁dollar	-8.10389
term	-8.11226
▁move	-8.11444
▁c	-8.11606
▁wall	-8.11837
▁little	-8.11965
▁agreement	-8.12051
▁going	-8.12182
▁based	-8.12446
▁today	-8.1247
▁west	-8.12784
▁services	-8.129
▁try	-8.13073
▁ended	-8.13143
▁certain	-8.13604
▁period	-8.13756
▁service	-8.13896
▁too	-8.14315
▁give	-8.14702
▁come	-8.14711
though	-8.14721
▁maker	-8.15788
▁annual	-8.16247
l	-8.16629
c	-8.17155
▁want	-8.17199
o	-8.17921
▁control	-8.17927
▁administration	-8.18125
▁agreed	-8.18177
▁news	-8.18177
▁then	-8.18608
▁point	-8.18894
corporate	-8.19105
▁cut	-8.19167
▁results	-8.19496
▁offering	-8.19789
p	-8.19932
▁economy	-8.20119
▁production	-8.20178
▁called	-8.20448
▁health	-8.20806
▁strong	-8.20892
▁though	-8.21008
▁analyst	-8.21285
▁here	-8.21374
▁country	-8.21376
▁junk	-8.21467
▁problems	-8.21474
r	-8.21612
▁air	-8.22268
▁political	-8.22887
▁loans	-8.23494
▁committee	-8.23545
▁buying	-8.23603
▁half	-8.2363
▁increased	-8.24623
▁policy	-8.24984
▁likely	-8.25128
▁recently	-8.25387
▁provide	-8.25463
▁further	-8.25703
▁industrial	-8.26059
▁notes	-8.26088
▁line	-8.26227
▁firms	-8.26406
▁continue	-8.26444
▁short	-8.26484
▁soviet	-8.26605
▁right	-8.26665
▁become	-8.26701
▁volume	-8.27143
▁open	-8.2717
▁life	-8.27523
▁monday	-8.27877
▁set	-8.2796
▁yet	-8.28348
▁around	-8.28478
▁london	-8.28611
▁old	-8.29325
▁plant	-8.29445
▁losses	-8.29476
▁paper	-8.29795
▁john	-8.29975
▁s	-8.30214
▁judge	-8.30462
▁august	-8.30858
▁ltd	-8.31226
▁wo	-8.31447
▁points	-8.31495
▁official	-8.31974
▁demand	-8.32283
▁gain	-8.32365
▁selling	-8.32374
▁takeover	-8.32476
▁earthquake	-8.32935
▁nov	-8.33199
▁expects	-8.34244
▁announced	-8.34391
▁de	-8.34467
▁declined	-8.34554
▁my	-8.34565
▁white	-8.3536
▁ual	-8.35843
▁record	-8.35888
▁largest	-8.35963
in	-8.36193
▁held	-8.36217
▁francisco	-8.363
ll	-8.36397
▁change	-8.36446
ian	-8.3668
▁keep	-8.36681
▁problem	-8.36708
▁reflect	-8.37001
▁making	-8.37127
the	-8.37516
▁remain	-8.37615
▁composite	-8.37909
▁decline	-8.38262
▁priced	-8.38365
▁comment	-8.3843
▁workers	-8.38532
▁systems	-8.38622
▁fi	-8.38665
▁businesses	-8.38674
▁trust	-8.38808
▁times	-8.39227
▁development	-8.39316
▁association	-8.395
▁senior	-8.39562
▁follow	-8.39726
▁ca	-8.40059
▁loan	-8.40369
▁car	-8.40748
▁series	-8.40784
▁every	-8.40805
▁start	-8.40905
▁chicago	-8.41202
▁dow	-8.41342
▁weeks	-8.41365
most	-8.41377
▁whe	-8.41409
▁gold	-8.41776
▁return	-8.41805
▁know	-8.41937
▁commission	-8.42431
▁data	-8.42451
▁estimated	-8.42618
ntil	-8.42641
▁members	-8.42723
▁area	-8.42846
▁expect	-8.43037
▁nine	-8.43395
▁jones	-8.43747
▁employees	-8.43769
▁run	-8.43833
▁level	-8.43919
▁deal	-8.44327
▁found	-8.44425
▁orders	-8.44954
▁acquisition	-8.45254
▁drop	-8.45603
▁example	-8.45621
▁commercial	-8.45915
▁meeting	-8.46003
▁addition	-8.46039
▁need	-8.46078
▁latest	-8.46491
▁later	-8.46525
▁great	-8.46736
▁holding	-8.4688
▁near	-8.46919
▁senate	-8.47021
▁north	-8.47033
▁estate	-8.47071
▁tuesday	-8.47251
▁drug	-8.47367
▁r	-8.47488
▁proposal	-8.47502
▁building	-8.47791
▁texas	-8.48146
▁rise	-8.48402
▁your	-8.48463
▁robert	-8.48482
▁east	-8.48624
▁order	-8.48695
▁position	-8.49389
▁currently	-8.49441
▁paid	-8.4946
▁possible	-8.49577
▁investor	-8.49735
▁account	-8.49759
▁purchase	-8.49766
▁washington	-8.49966
▁proposed	-8.5001
▁nation	-8.50153
▁future	-8.50193
▁offered	-8.50266
▁better	-8.50443
▁amount	-8.5092
▁once	-8.50963
▁clear	-8.51179
▁damage	-8.51426
▁f	-8.51833
▁private	-8.52049
▁spending	-8.52084
▁product	-8.52096
▁mortgage	-8.526
▁technology	-8.52751
▁often	-8.53345
▁received	-8.53405
ok	-8.53804
▁charge	-8.53804
▁executives	-8.53922
▁low	-8.54064
▁decision	-8.54539
▁named	-8.5466
▁changes	-8.54662
▁g	-8.54701
▁terms	-8.54708
▁l	-8.55027
▁october	-8.55084
▁particular	-8.55132
▁filed	-8.55682
▁force	-8.55719
▁defense	-8.55765
▁gas	-8.55857
ought	-8.55887
▁top	-8.55895
▁division	-8.56044
▁information	-8.56122
▁customers	-8.56211
▁within	-8.57934
ard	-8.58351
▁budget	-8.58565
scal	-8.58767
▁enough	-8.59051
▁began	-8.59066
▁america	-8.59174
▁raise	-8.59376
▁states	-8.59511
ting	-8.5955
▁per	-8.59643
▁europe	-8.59989
▁outstanding	-8.60084
▁came	-8.60477
▁rights	-8.60538
▁equipment	-8.60574
▁full	-8.60786
age	-8.60846
▁others	-8.6097
▁consumer	-8.61056
hose	-8.61194
▁ford	-8.61217
▁told	-8.61334
▁hard	-8.61423
ite	-8.61499
▁warner	-8.61591
▁industries	-8.61599
▁transaction	-8.62093
k	-8.62154
▁boost	-8.62323
▁auto	-8.62507
▁dropped	-8.62639
▁potential	-8.62653
▁european	-8.62836
▁previous	-8.6292
▁finance	-8.62965
▁additional	-8.63026
man	-8.63243
▁joint	-8.6359
▁j	-8.63642
▁july	-8.63671
▁steel	-8.64151
▁rich	-8.64322
▁hope	-8.64711
▁lot	-8.64715
▁compare	-8.64836
▁local	-8.65022
▁jam	-8.65179
▁jaguar	-8.65251
▁tokyo	-8.65258
▁inflation	-8.65261
ward	-8.65396
en	-8.6541
▁never	-8.65509
▁fed	-8.65714
▁equity	-8.65734
▁personal	-8.66132
▁action	-8.662
▁mus	-8.66463
▁h	-8.66625
ally	-8.66778
▁important	-8.66877
▁banking	-8.67263
▁computers	-8.6754
▁best	-8.67804
▁shareholders	-8.67824
▁managers	-8.67886
▁instead	-8.67957
▁university	-8.67966
▁free	-8.68072
▁programs	-8.68362
▁labor	-8.68536
▁manager	-8.68635
▁makes	-8.68706
▁financing	-8.69011
▁claims	-8.69049
▁mich	-8.69067
▁gains	-8.69142
▁got	-8.6931
▁special	-8.69319
▁away	-8.69366
▁march	-8.6962
▁construction	-8.69625
▁charges	-8.69814
▁similar	-8.70175
▁fall	-8.70313
or	-8.70343
▁desp	-8.70599
▁things	-8.70641
▁place	-8.70917
▁believe	-8.71175
▁turn	-8.71175
▁continued	-8.71404
▁asked	-8.71479
▁increasing	-8.71899
▁dollars	-8.72006
▁pre	-8.72158
▁family	-8.72962
▁calif	-8.73006
▁june	-8.73008
▁suit	-8.7311
▁head	-8.73125
▁act	-8.73198
▁los	-8.73217
i	-8.73291
led	-8.73327
▁above	-8.73583
▁sept	-8.73584
▁advertising	-8.73625
▁face	-8.74032
▁below	-8.74198
▁food	-8.7439
▁units	-8.74469
▁western	-8.74691
▁posted	-8.75029
▁bills	-8.75122
▁compar	-8.75206
▁china	-8.75338
▁lost	-8.75375
▁soon	-8.75779
▁seem	-8.7596
▁fourth	-8.75988
▁taken	-8.76045
▁legal	-8.76078
▁via	-8.76085
▁restructuring	-8.76488
▁marketing	-8.76531
▁stores	-8.76665
▁hand	-8.76836
▁risk	-8.76933
▁vote	-8.77002
▁reduce	-8.77095
▁security	-8.77135
▁19	-8.77157
▁me	-8.77412
▁final	-8.77609
▁boston	-8.7773
w	-8.77784
▁fact	-8.78231
▁subsidiary	-8.78346
based	-8.78358
▁tv	-8.7838
▁options	-8.78465
▁included	-8.78595
▁young	-8.78648
▁figures	-8.78695
▁left	-8.78934
▁network	-8.79246
▁center	-8.79328
▁find	-8.79465
▁project	-8.79662
▁effort	-8.79822
▁contracts	-8.79852
▁dealers	-8.79936
▁meanwhile	-8.80184
▁ra	-8.80244
▁working	-8.80329
▁question	-8.80424
▁portfolio	-8.80503
▁statement	-8.80548
▁main	-8.80772
▁countries	-8.80805
early	-8.80849
▁talk	-8.80863
▁effect	-8.81074
▁angeles	-8.81435
▁savings	-8.8159
▁standard	-8.81749
ern	-8.8178
▁along	-8.81791
▁using	-8.81805
▁allow	-8.81819
▁jump	-8.81922
▁holders	-8.81959
▁itself	-8.82076
▁available	-8.82077
▁approved	-8.82127
▁hit	-8.82407
▁reports	-8.82452
#	-8.82529
▁parent	-8.82552
▁noted	-8.82565
▁ibm	-8.82659
▁usual	-8.83035
▁david	-8.83315
▁percent	-8.83451
▁lawyers	-8.83473
▁cars	-8.83858
▁seven	-8.84074
ry	-8.84101
▁dividend	-8.84114
▁reached	-8.84185
▁dr	-8.8438
▁deficit	-8.84434
▁process	-8.84499
▁black	-8.84776
▁domestic	-8.85238
▁telephone	-8.85263
▁either	-8.85354
▁cases	-8.85395
▁germany	-8.85559
▁pro	-8.85709
▁re	-8.85977
▁institute	-8.86047
▁reserve	-8.86074
▁airlines	-8.86092
ble	-8.86218
earlier	-8.86261
▁efforts	-8.86285
▁chemical	-8.86344
▁hav	-8.86604
▁lead	-8.86676
▁school	-8.86758
▁pacific	-8.87045
▁approval	-8.87145
▁express	-8.87287
b	-8.87359
▁measure	-8.87542
▁individual	-8.87663
ic	-8.8792
ful	-8.87954
ary	-8.88099
▁talks	-8.88149
▁increases	-8.88165
▁previously	-8.88197
▁secretary	-8.88332
x	-8.88423
▁known	-8.88485
tax	-8.88744
▁given	-8.88913
▁eastern	-8.89257
▁view	-8.89259
▁calls	-8.89469
▁gained	-8.89562
▁canada	-8.89597
▁payments	-8.89675
▁party	-8.89771
▁bay	-8.89893
▁single	-8.89959
▁manufacturing	-8.89968
▁name	-8.9003
▁job	-8.90406
▁post	-8.90421
▁saying	-8.90807
▁attorney	-8.91115
▁slightly	-8.91339
▁poor	-8.91455
▁earn	-8.91468
ton	-8.91546
▁bring	-8.91595
▁acquired	-8.91611
▁pressure	-8.91863
▁strategy	-8.92042
▁rep	-8.92074
▁helped	-8.9226
▁venture	-8.92438
▁airline	-8.92506
▁performance	-8.92657
▁raised	-8.92737
▁ad	-8.9276
▁german	-8.92889
▁team	-8.93308
▁step	-8.93309
▁build	-8.93355
▁block	-8.93392
▁military	-8.93397
▁television	-8.93403
▁call	-8.93592
▁why	-8.93832
▁machines	-8.93875
▁australia	-8.94109
▁medical	-8.9411
▁abortion	-8.94314
▁marks	-8.94476
▁different	-8.94596
▁magazine	-8.94677
▁william	-8.94724
▁clients	-8.94751
▁heavy	-8.94809
▁britain	-8.94817
▁property	-8.94821
▁energy	-8.94831
▁electric	-8.94855
▁coming	-8.94882
▁chance	-8.94955
▁profits	-8.95826
▁canad	-8.959
▁dec	-8.95947
▁directors	-8.96028
▁something	-8.96275
▁test	-8.96309
▁failed	-8.96373
▁role	-8.96384
▁district	-8.9691
▁bankruptcy	-8.96998
ially	-8.97023
▁went	-8.97137
▁add	-8.97138
▁completed	-8.97181
▁attempt	-8.97298
▁limited	-8.97299
▁mass	-8.97359
▁growing	-8.97397
▁fees	-8.97429
▁press	-8.97442
▁o	-8.97607
▁settlement	-8.97738
▁estimates	-8.97762
▁groups	-8.9778
ael	-8.97925
to	-8.98093
▁activity	-8.98472
▁investments	-8.98472
▁legislation	-8.9849
▁makers	-8.98622
▁acquire	-8.99049
▁remains	-8.99091
▁merrill	-8.99212
▁columbia	-8.99215
▁push	-8.99231
▁levels	-8.99681
▁focus	-8.99685
▁communications	-8.99739
▁tell	-9.00023
0	-9.00224
▁consider	-9.00247
▁par	-9.00519
▁motor	-9.00656
▁apparent	-9.00765
▁bigge	-9.00821
▁hold	-9.00871
▁prime	-9.01106
▁ever	-9.01118
▁seeking	-9.01132
th	-9.01237
▁currency	-9.01243
▁receive	-9.01279
▁am	-9.01317
one	-9.01365
▁institutions	-9.01494
▁huge	-9.01499
▁independent	-9.01518
▁leaders	-9.01522
▁lines	-9.02213
▁begin	-9.02235
▁lynch	-9.02245
▁conference	-9.02261
▁scheduled	-9.02334
▁list	-9.02429
▁reserves	-9.02575
▁involved	-9.02582
▁pa	-9.02619
▁range	-9.02716
▁region	-9.02777
▁mark	-9.02792
▁outside	-9.0294
▁kong	-9.03026
▁transportation	-9.03041
▁leader	-9.03068
▁staff	-9.03084
▁gm	-9.03366
▁taking	-9.03436
ized	-9.03503
▁probabl	-9.03601
▁buyers	-9.03706
▁goods	-9.03758
▁april	-9.038
▁really	-9.03815
▁always	-9.03831
▁interests	-9.03872
▁basis	-9.03883
month	-9.04027
▁longer	-9.04029
and	-9.04029
▁wants	-9.04345
▁form	-9.04591
▁brokerage	-9.04609
▁espec	-9.04632
▁producers	-9.04633
▁daily	-9.04664
▁man	-9.04691
▁reason	-9.05364
▁campaign	-9.05459
▁key	-9.05525
▁auction	-9.05531
time	-9.05774
▁require	-9.05785
index	-9.05896
▁estimate	-9.05951
▁concerns	-9.05954
ional	-9.06069
▁themselves	-9.06196
▁competition	-9.06198
▁means	-9.06322
▁meet	-9.06395
ar	-9.06862
▁drexel	-9.06991
▁impact	-9.06992
▁disclosed	-9.07
▁whole	-9.07202
▁significant	-9.07627
▁doing	-9.07673
▁bad	-9.07789
leading	-9.07901
▁course	-9.07973
▁adds	-9.08033
▁claim	-9.08073
rson	-9.08134
▁related	-9.08162
▁owns	-9.08213
▁projects	-9.08337
u	-9.08453
▁started	-9.08463
▁french	-9.08623
▁supply	-9.0863
▁hours	-9.0878
▁plants	-9.08829
▁retail	-9.08832
▁reduced	-9.09063
▁morgan	-9.09451
▁shea	-9.09468
▁majority	-9.09477
▁survey	-9.0961
▁eight	-9.09619
▁succeed	-9.09743
▁arbitrage	-9.09856
▁appeal	-9.1002
▁base	-9.10179
▁wednesday	-9.10292
▁hurt	-9.10302
▁issued	-9.10324
▁care	-9.10357
▁quickly	-9.10372
▁seems	-9.10577
▁rules	-9.10685
▁war	-9.1071
▁aid	-9.10721
▁sen	-9.10775
▁holdings	-9.10784
▁needed	-9.1096
▁journal	-9.11123
▁fixed	-9.1114
▁areas	-9.11203
ment	-9.11355
▁benefit	-9.11395
▁limit	-9.11704
▁seen	-9.11708
▁december	-9.11976
▁community	-9.11979
day	-9.12273
▁accounts	-9.12318
▁done	-9.1232
▁partners	-9.12522
▁volatility	-9.12835
▁generally	-9.1292
▁traded	-9.1292
▁kind	-9.13008
▁human	-9.13048
▁situation	-9.13097
▁study	-9.1313
▁manufacturers	-9.13453
▁direct	-9.1346
▁worth	-9.13603
▁thursday	-9.13692
▁women	-9.13694
▁beginning	-9.13698
▁appear	-9.13799
he	-9.14036
▁asset	-9.14329
share	-9.1441
▁subject	-9.14787
▁filing	-9.14791
rs	-9.14818
▁recession	-9.1487
▁thought	-9.1488
▁active	-9.14983
▁natural	-9.15204
▁inter	-9.15326
▁plc	-9.15423
▁protection	-9.15454
▁planned	-9.15462
▁imports	-9.15681
▁men	-9.15726
▁taxes	-9.15803
▁space	-9.15918
▁seek	-9.15988
▁produce	-9.16014
▁democratic	-9.16331
▁history	-9.16333
▁brokers	-9.16356
▁target	-9.16537
j	-9.16644
▁exist	-9.16684
▁feel	-9.16701
at	-9.16747
▁light	-9.16757
less	-9.16815
▁media	-9.16884
▁note	-9.17286
▁ahead	-9.17292
▁let	-9.1745
▁required	-9.17594
▁rally	-9.17806
▁thing	-9.17893
▁changed	-9.17956
▁yields	-9.17964
▁summer	-9.18113
▁perhaps	-9.18113
▁veto	-9.18123
▁guber	-9.19014
▁software	-9.19025
▁advanced	-9.19234
▁mood	-9.19295
▁justice	-9.1944
▁considered	-9.19465
▁sure	-9.19538
▁anything	-9.19947
▁housing	-9.19981
▁ho	-9.2
▁france	-9.20014
▁showed	-9.20061
▁delivery	-9.2011
▁specific	-9.20199
▁creditors	-9.20218
▁brothers	-9.20226
▁floor	-9.20298
▁benefits	-9.20666
▁georgia	-9.20864
▁noriega	-9.20864
g	-9.20875
▁preferred	-9.20885
▁relative	-9.20949
▁cancer	-9.21131
▁shareholder	-9.21138
▁exports	-9.21154
▁francs	-9.2126
▁difficult	-9.21467
▁sent	-9.21504
▁returns	-9.21533
▁parts	-9.21585
▁park	-9.2162
▁cbs	-9.21787
▁entertainment	-9.2181
▁carry	-9.21812
▁continuing	-9.21869
▁stop	-9.21907
▁merger	-9.22152
▁announcement	-9.22171
be	-9.22197
land	-9.22289
▁closing	-9.223
▁bankers	-9.22483
▁play	-9.2272
▁george	-9.22741
▁minimum	-9.22742
▁children	-9.22745
▁nothing	-9.22755
▁typical	-9.22845
h	-9.22866
▁sharp	-9.2289
▁inde	-9.22913
▁machine	-9.23033
▁minister	-9.23096
turned	-9.231
back	-9.23652
over	-9.23763
▁article	-9.24065
est	-9.24135
▁crash	-9.24244
wide	-9.24268
▁wanted	-9.24467
▁environmental	-9.24499
▁broad	-9.24562
▁le	-9.24625
▁evidence	-9.24658
▁spokeswoman	-9.24663
▁offset	-9.24707
▁smaller	-9.24855
▁partner	-9.25018
▁pilots	-9.2523
ong	-9.25276
▁watch	-9.25433
▁cover	-9.25461
▁30-	-9.25603
▁himself	-9.25626
▁side	-9.25683
▁sharply	-9.25844
▁created	-9.25967
▁centr	-9.25998
▁thrift	-9.25999
▁pound	-9.26076
▁source	-9.26095
▁red	-9.26132
▁green	-9.26236
▁stay	-9.2654
▁overseas	-9.26611
▁resources	-9.26723
▁quake	-9.27075
▁figure	-9.27127
▁nor	-9.2715
▁cause	-9.2721
▁initial	-9.27367
▁improve	-9.27372
▁sign	-9.27471
▁owned	-9.2752
▁hugo	-9.27594
▁battle	-9.27598
▁unchanged	-9.27601
▁actually	-9.2781
▁sector	-9.27859
▁size	-9.27971
▁member	-9.28036
▁brand	-9.28065
▁session	-9.28067
til	-9.28268
▁converti	-9.28388
▁irs	-9.28685
▁review	-9.28707
▁won	-9.28791
▁game	-9.28816
▁giant	-9.29032
▁water	-9.29222
▁kidder	-9.29601
▁ga	-9.29775
▁directly	-9.29917
▁continues	-9.29996
▁night	-9.30128
▁conditions	-9.3041
▁book	-9.30475
▁across	-9.30683
mon	-9.307
▁tons	-9.30763
▁create	-9.3086
▁designed	-9.30984
▁regulators	-9.31058
▁strike	-9.31131
▁letter	-9.31163
▁lack	-9.31263
▁built	-9.31332
▁americans	-9.3135
▁protect	-9.31741
▁represent	-9.31752
▁maintain	-9.31855
▁decided	-9.31857
▁climb	-9.32133
▁provision	-9.32171
▁response	-9.32212
▁spend	-9.32214
▁questions	-9.32225
rate	-9.32259
▁closely	-9.3244
▁transactions	-9.32752
▁produced	-9.33033
▁rest	-9.33352
▁prevent	-9.33401
ous	-9.33415
▁separate	-9.33525
▁believes	-9.33543
▁simpl	-9.33608
▁field	-9.33703
▁behind	-9.33744
▁original	-9.3375
▁running	-9.33757
▁smith	-9.33759
▁sense	-9.3387
▁sometime	-9.33926
▁woman	-9.33982
f	-9.34219
gains	-9.34243
▁operation	-9.34267
▁newspaper	-9.34304
▁rising	-9.34395
▁regulator	-9.34426
▁fe	-9.3447
▁land	-9.34481
market	-9.34617
▁associates	-9.34708
▁design	-9.3474
reme	-9.34792
▁january	-9.34811
▁complete	-9.34812
▁brought	-9.34819
▁capacity	-9.34831
▁section	-9.34852
▁class	-9.34894
▁sec	-9.34953
▁rule	-9.35122
▁economists	-9.35258
▁idea	-9.35373
▁peter	-9.35452
▁avoid	-9.35512
hman	-9.35553
▁effective	-9.3567
um	-9.35842
▁hurricane	-9.35891
▁spent	-9.3592
▁leveraged	-9.35956
▁spread	-9.3596
▁sony	-9.36108
▁paying	-9.3623
▁wage	-9.3624
counter	-9.36298
▁traditional	-9.36428
▁democrats	-9.36448
▁sup	-9.36455
▁allowed	-9.36485
▁discount	-9.36674
uring	-9.36837
▁moves	-9.36948
▁civil	-9.36965
▁agencies	-9.36975
▁gorbachev	-9.36977
▁ruling	-9.36982
▁fully	-9.37096
z	-9.37123
▁merc	-9.37169
▁aim	-9.37182
▁trial	-9.37539
▁expenses	-9.3764
▁organization	-9.37756
▁actual	-9.37846
▁serious	-9.37848
▁followed	-9.37906
it	-9.37973
▁la	-9.37995
▁favor	-9.38021
▁ability	-9.38066
▁emergency	-9.38091
▁jr	-9.38094
▁alleged	-9.38122
▁consumers	-9.38141
▁jobs	-9.38355
▁fear	-9.38454
▁package	-9.38478
▁forced	-9.38718
▁met	-9.38782
▁access	-9.39214
▁elect	-9.39407
▁bell	-9.39411
up	-9.3963
▁develop	-9.39808
▁economist	-9.3985
▁matter	-9.39865
▁slow	-9.40242
▁shows	-9.40271
▁dinkins	-9.40304
▁pension	-9.4037
le	-9.40446
ter	-9.40638
developed	-9.40728
▁spring	-9.41039
▁payment	-9.41071
▁cable	-9.41194
▁funding	-9.41387
▁mutual	-9.41436
▁reagan	-9.41436
▁facilities	-9.41447
▁anti	-9.41465
▁together	-9.41483
▁introduced	-9.4158
▁experience	-9.41725
▁interview	-9.41818
▁farmers	-9.41944
▁drive	-9.42089
▁decade	-9.42167
▁type	-9.42169
▁partnership	-9.42179
▁salo	-9.42298
▁offices	-9.42307
▁commerce	-9.42597
▁headquarters	-9.426
▁exceed	-9.42601
son	-9.42818
▁import	-9.43216
▁flat	-9.43236
▁morning	-9.43249
▁deposit	-9.43332
▁death	-9.4337
ital	-9.43474
▁leave	-9.43494
▁plunge	-9.43542
▁quality	-9.43646
▁win	-9.4375
▁activities	-9.43758
▁poland	-9.43758
▁county	-9.43855
▁greater	-9.43905
▁instance	-9.43962
▁holds	-9.43965
▁signed	-9.44139
ago	-9.44147
▁age	-9.44158
▁premium	-9.4453
ily	-9.44575
called	-9.44821
▁miles	-9.44873
▁hundred	-9.44926
▁ministry	-9.44929
▁failure	-9.44931
▁johnson	-9.4497
▁resigned	-9.44979
▁equal	-9.45215
▁researchers	-9.45322
▁reach	-9.45497
▁needs	-9.45578
▁pick	-9.45604
▁mar	-9.45927
▁w	-9.45977
▁famili	-9.46057
▁margins	-9.4612
▁peters	-9.46124
▁travel	-9.46215
cal	-9.46241
▁separately	-9.4638
▁ways	-9.46411
▁sports	-9.46451
▁fast	-9.46731
▁conservative	-9.46963
▁st	-9.4698
▁chain	-9.47061
issan	-9.47284
▁thomas	-9.47316
▁valley	-9.47318
▁safety	-9.47323
▁trader	-9.47403
▁stand	-9.47422
▁overall	-9.47475
▁manag	-9.47956
so	-9.48025
▁electronic	-9.48151
▁forecast	-9.4819
▁moved	-9.48297
▁success	-9.48423
▁conduct	-9.48719
▁widely	-9.48739
▁term	-9.49016
▁retain	-9.49105
▁q	-9.49215
▁approach	-9.49321
▁accept	-9.49366
▁join	-9.49589
▁person	-9.49716
▁baker	-9.49776
▁authority	-9.4978
▁dozen	-9.49784
▁mitsu	-9.49864
▁owners	-9.4995
is	-9.50037
▁write	-9.50123
▁forces	-9.50165
ive	-9.50396
▁corn	-9.50538
▁gene	-9.50654
▁request	-9.50663
▁declines	-9.50844
▁mid	-9.50847
▁export	-9.5093
▁beyond	-9.51021
▁opposition	-9.5103
▁properties	-9.5103
▁engineering	-9.51244
▁debentures	-9.51253
▁v	-9.51311
▁improved	-9.51332
▁larger	-9.51496
▁indicated	-9.51515
▁dig	-9.5157
▁read	-9.51578
ford	-9.51627
▁provisions	-9.51684
▁match	-9.51893
▁blue	-9.52059
▁provided	-9.52062
▁substantial	-9.52067
▁fraud	-9.52279
▁policies	-9.52291
▁speculation	-9.52297
estate	-9.52497
▁electronics	-9.52685
us	-9.52886
▁date	-9.53139
▁ab	-9.53145
me	-9.53155
▁image	-9.53299
▁investigation	-9.53314
▁version	-9.53433
▁materials	-9.53533
▁panama	-9.53565
▁council	-9.53569
▁negative	-9.53572
▁unusual	-9.53592
▁comp	-9.53595
▁trades	-9.53664
third	-9.53671
▁africa	-9.53686
▁couple	-9.53714
ham	-9.53722
▁alone	-9.53829
▁proceeds	-9.53933
▁fight	-9.54314
▁social	-9.54323
▁indicate	-9.54357
▁practice	-9.5438
▁lawyer	-9.54564
▁customer	-9.5457
▁disaster	-9.54598
▁trend	-9.54613
▁carrier	-9.54634
▁affect	-9.54655
hen	-9.54852
▁nasdaq	-9.54863
▁hutton	-9.54864
▁stanley	-9.54867
▁brown	-9.5487
▁planning	-9.54896
▁pence	-9.54908
▁feet	-9.55069
▁cross	-9.5518
▁cuts	-9.55221
▁takes	-9.55277
el	-9.55286
▁measures	-9.55287
▁highly	-9.55344
▁ask	-9.55373
▁hands	-9.55415
▁brands	-9.55601
ler	-9.55654
▁deals	-9.55719
▁consultant	-9.55921
▁option	-9.55928
▁store	-9.56056
▁treatment	-9.5619
▁appropriations	-9.56194
▁cray	-9.56266
▁motors	-9.56277
▁art	-9.56308
▁story	-9.56513
▁discuss	-9.56647
▁individuals	-9.5667
▁agree	-9.56706
▁willing	-9.56776
▁du	-9.56958
▁students	-9.57106
▁rating	-9.5727
▁republican	-9.57293
▁double	-9.57317
▁subordinate	-9.57344
▁shift	-9.5737
▁education	-9.57445
▁passed	-9.57488
▁charles	-9.57506
▁lawmakers	-9.57526
▁everyone	-9.57564
▁jury	-9.576
▁necessary	-9.5763
▁lawson	-9.57636
▁cited	-9.57839
▁sil	-9.57958
▁purchases	-9.58256
▁fire	-9.5844
▁pull	-9.58565
▁break	-9.58654
▁publicly	-9.58663
▁dispute	-9.58664
▁rough	-9.58664
ted	-9.58715
▁suffer	-9.58765
▁dis	-9.58838
▁minority	-9.58871
▁commodity	-9.58871
▁bench	-9.58874
▁police	-9.58876
▁neither	-9.58881
▁hour	-9.58902
▁rejected	-9.58973
▁negotiations	-9.59048
▁jose	-9.59069
▁prompt	-9.59081
clear	-9.59092
▁else	-9.59099
▁tough	-9.59312
▁nav	-9.59398
▁brad	-9.59404
▁experts	-9.59449
▁worked	-9.59635
co	-9.59706
▁moving	-9.59914
▁fuel	-9.60124
▁nu	-9.60155
▁attention	-9.60239
▁reorganization	-9.60247
▁eventually	-9.60284
▁lose	-9.60362
▁expectations	-9.60472
▁interna	-9.60603
▁competitors	-9.60708
ver	-9.60724
▁amounts	-9.60805
red	-9.60906
▁non	-9.60921
▁interested	-9.6101
▁raising	-9.61238
▁works	-9.61346
▁entire	-9.6139
ion	-9.61541
▁influence	-9.61627
▁manhattan	-9.61627
▁petroleum	-9.61627
▁retirement	-9.61633
▁heavily	-9.61634
▁popular	-9.61637
▁mexico	-9.61645
▁grand	-9.61669
▁society	-9.61697
▁promise	-9.61753
▁vari	-9.61764
▁mean	-9.61838
▁accounting	-9.61888
▁des	-9.61938
▁lin	-9.62001
old	-9.62004
▁discover	-9.62105
▁replace	-9.62105
▁positions	-9.62195
▁drugs	-9.62317
▁standards	-9.62326
▁sought	-9.6235
▁ag	-9.62508
▁weak	-9.6254
▁involv	-9.62552
▁factors	-9.62618
▁suggest	-9.62648
▁considering	-9.62669
▁modest	-9.62805
ty	-9.62817
▁bureau	-9.62856
▁reform	-9.62858
▁film	-9.6288
▁criminal	-9.62886
▁improvement	-9.62887
▁split	-9.63021
▁chapter	-9.6303
▁november	-9.63033
▁ownership	-9.63036
▁sound	-9.63044
▁technical	-9.63046
▁output	-9.63061
▁star	-9.63062
ever	-9.63065
▁anyone	-9.63193
▁immediately	-9.63202
▁flow	-9.63283
▁offers	-9.63416
▁giv	-9.63742
▁frank	-9.6401
▁narrow	-9.64088
valued	-9.64237
▁municipal	-9.64322
▁college	-9.64333
mark	-9.64415
▁ban	-9.64416
▁gulf	-9.64442
▁copper	-9.64459
▁pentagon	-9.6446
▁litigation	-9.64464
▁opportunity	-9.64466
▁saw	-9.64615
▁va	-9.6463
▁opening	-9.64742
▁scientists	-9.64836
▁soviets	-9.64863
▁victims	-9.64898
▁items	-9.64917
▁season	-9.64958
▁mail	-9.65068
▁dividends	-9.65123
▁bar	-9.6531
off	-9.65354
came	-9.65376
▁developing	-9.6541
▁quot	-9.65421
▁bridge	-9.65498
▁trouble	-9.6552
▁advance	-9.6562
▁houses	-9.65706
▁principal	-9.65814
▁live	-9.65821
▁truck	-9.65885
▁moscow	-9.65902
▁england	-9.65906
▁aircraft	-9.65911
▁everything	-9.65915
▁events	-9.65938
▁bidding	-9.65961
▁owner	-9.66169
▁magazines	-9.66204
▁doubt	-9.66349
▁minutes	-9.66393
▁room	-9.66459
▁bids	-9.66978
▁strength	-9.67225
▁involve	-9.67251
pacific	-9.67326
▁lloyd	-9.67367
▁grow	-9.6737
▁swi	-9.67387
▁apple	-9.67456
▁convention	-9.67476
▁portion	-9.67633
▁reduction	-9.67675
▁monthly	-9.6778
▁concerned	-9.67819
tc	-9.67974
▁gen	-9.68044
▁heart	-9.68076
▁risks	-9.68454
▁uni	-9.68468
▁details	-9.68475
▁ads	-9.68705
▁fa	-9.68723
8	-9.68751
▁crime	-9.68799
▁hotel	-9.68799
▁panel	-9.68807
▁debate	-9.68809
▁maturity	-9.6887
▁balance	-9.68895
▁thatcher	-9.68919
▁restrictions	-9.69119
▁broadcasting	-9.69143
▁coast	-9.69179
▁sort	-9.69197
▁cons	-9.6935
▁sun	-9.69357
▁handle	-9.69769
▁predict	-9.69848
▁contain	-9.69859
her	-9.69902
▁pending	-9.69959
all	-9.69975
▁glob	-9.70096
▁tender	-9.70218
▁attract	-9.70262
▁segment	-9.70323
▁difference	-9.70325
▁wrote	-9.70372
▁paribas	-9.70381
▁chinese	-9.70381
▁ultimate	-9.70384
▁facility	-9.70418
▁parties	-9.70435
▁easy	-9.70443
▁true	-9.70461
▁edward	-9.70486
▁combined	-9.70526
▁pricing	-9.70535
▁troubled	-9.70634
▁denie	-9.70697
▁requirements	-9.70761
▁town	-9.70809
▁thousands	-9.70854
▁believed	-9.7102
▁operate	-9.71091
▁burn	-9.71167
▁acquisitions	-9.71245
stitutional	-9.71341
ph	-9.71441
▁sources	-9.71668
▁movie	-9.71892
▁ohio	-9.71903
▁relations	-9.71926
▁morris	-9.71949
▁editor	-9.71953
▁track	-9.72055
ial	-9.7206
▁producer	-9.72064
▁prepared	-9.7213
▁compa	-9.72244
▁tele	-9.72541
▁insist	-9.72566
▁players	-9.72831
bond	-9.73007
care	-9.73094
▁vehicles	-9.73102
▁developer	-9.73191
▁korea	-9.7323
▁blame	-9.73254
▁k	-9.7327
▁arizona	-9.7348
▁tomorrow	-9.73483
▁expansion	-9.73485
▁revised	-9.73499
▁employee	-9.73512
▁depend	-9.73518
▁exercise	-9.7353
▁goldman	-9.73536
▁decide	-9.73546
▁highest	-9.73586
▁tried	-9.73604
▁ratings	-9.73721
▁publishing	-9.73729
▁mortgages	-9.73973
▁prosecutors	-9.74068
▁virtu	-9.7434
ms	-9.74461
▁mayor	-9.7467
▁chips	-9.74702
anta	-9.7489
▁except	-9.74897
▁guilty	-9.75063
▁expensive	-9.75072
▁broker	-9.75073
▁consulting	-9.75073
▁painewebber	-9.75075
▁cities	-9.75082
▁color	-9.75132
▁declining	-9.75158
▁laws	-9.75191
▁released	-9.75296
▁settled	-9.75301
▁speed	-9.75344
▁launched	-9.75401
▁plunged	-9.75442
▁conn	-9.75483
▁homes	-9.75777
▁mae	-9.75782
▁slowing	-9.75927
▁mac	-9.75934
▁damaged	-9.75945
▁caus	-9.76163
quite	-9.76167
▁present	-9.76219
use	-9.7623
▁collapse	-9.76444
▁basic	-9.7657
▁extreme	-9.76679
▁sterling	-9.76681
▁competitive	-9.76683
▁manville	-9.76687
▁intelligence	-9.76688
▁waiting	-9.7675
▁profitable	-9.7683
▁speak	-9.76874
▁assistan	-9.76925
▁beca	-9.77148
▁chemicals	-9.77327
▁sh	-9.77379
▁safe	-9.77445
▁centers	-9.77503
▁bear	-9.77511
ul	-9.77569
▁environment	-9.77637
▁sea	-9.77708
▁controls	-9.77731
thus	-9.77733
▁corporations	-9.77796
ust	-9.78034
igation	-9.78202
▁da	-9.78213
▁dallas	-9.78313
▁radio	-9.78314
▁toronto	-9.78316
▁slowdown	-9.78324
▁distribution	-9.78331
▁surprising	-9.78349
▁material	-9.78362
▁recovery	-9.7853
ce	-9.78796
as	-9.78855
▁soft	-9.79127
▁quote	-9.79128
▁mess	-9.79131
▁purchased	-9.79223
▁pret	-9.79232
▁insurers	-9.79271
▁charged	-9.79328
▁headed	-9.7935
▁phone	-9.79436
▁ending	-9.79654
mid	-9.79732
▁release	-9.79793
▁tests	-9.79804
▁invest	-9.79877
▁phil	-9.79883
▁delay	-9.79965
▁exxon	-9.79974
▁sachs	-9.79975
▁philip	-9.7998
▁israel	-9.7998
▁campeau	-9.79982
▁uncertainty	-9.79994
▁threat	-9.80018
▁voters	-9.80197
▁understand	-9.80265
▁republicans	-9.80305
▁actions	-9.80333
▁predicted	-9.80341
▁documents	-9.80365
▁mind	-9.80365
etary	-9.80469
▁schools	-9.80638
▁gets	-9.80757
▁expand	-9.80776
▁placed	-9.80806
▁contribute	-9.8081
▁devices	-9.80824
▁learn	-9.80895
▁ge	-9.80912
▁represents	-9.80928
▁margin	-9.81001
▁coupon	-9.81358
▁unlike	-9.81457
▁nations	-9.81488
▁successful	-9.81537
▁mcca	-9.81542
▁jack	-9.8166
▁traffic	-9.81665
▁krenz	-9.81668
▁trigger	-9.81676
▁utilities	-9.81681
▁complex	-9.81681
▁transfer	-9.81681
state	-9.81698
▁aero	-9.81745
▁advertisers	-9.81792
▁trucks	-9.81793
▁election	-9.81828
▁clean	-9.81854
▁lending	-9.81883
▁paris	-9.81883
▁plus	-9.81901
▁genetic	-9.81906
▁steps	-9.81907
▁primary	-9.81912
▁sears	-9.81978
▁save	-9.82042
▁affected	-9.82136
▁affairs	-9.82143
▁underwriters	-9.82491
▁buildings	-9.82596
▁signs	-9.8275
▁exchanges	-9.82823
end	-9.82997
▁obtain	-9.83033
▁launch	-9.83037
▁arm	-9.83104
house	-9.83221
▁elections	-9.83337
▁club	-9.83387
▁brief	-9.83391
▁luxury	-9.83395
▁mixte	-9.83395
▁lincoln	-9.83399
▁relief	-9.83399
▁trillion	-9.83403
▁essential	-9.83404
▁afternoon	-9.83405
▁elsewhere	-9.83407
▁century	-9.83423
▁breed	-9.83485
▁professional	-9.83572
▁adviser	-9.83609
▁whom	-9.8361
▁communist	-9.83618
▁structure	-9.83662
▁numbers	-9.83839
▁surged	-9.83852
▁accepted	-9.8391
▁fears	-9.84072
▁effects	-9.84343
by	-9.84347
▁del	-9.84398
▁adjusted	-9.84483
▁words	-9.84635
▁wild	-9.84698
▁stations	-9.84901
▁jersey	-9.85149
▁liability	-9.8516
▁continental	-9.85168
▁mixed	-9.85288
▁client	-9.85314
▁alternative	-9.85338
▁voice	-9.8535
▁model	-9.85359
▁attack	-9.85399
▁established	-9.85477
▁ventures	-9.8563
▁significantly	-9.85658
space	-9.85679
▁residents	-9.85692
▁deposits	-9.85791
▁hearing	-9.85851
▁alan	-9.85928
▁cds	-9.85938
rry	-9.86088
▁generate	-9.86123
▁prove	-9.86146
▁associate	-9.86183
▁annually	-9.86381
▁deliver	-9.86413
▁mary	-9.86548
ory	-9.86678
▁normal	-9.86713
kept	-9.86842
▁falling	-9.86859
▁reasons	-9.86903
▁wrong	-9.86928
▁deputy	-9.86933
▁hostile	-9.86938
▁baseball	-9.86939
▁february	-9.86939
▁positive	-9.86939
▁nicaragua	-9.86942
▁alliance	-9.86946
▁worry	-9.86989
▁fuji	-9.87109
▁opposed	-9.8711
▁guidelines	-9.87114
▁hospital	-9.87153
▁opinion	-9.8716
▁supplies	-9.87167
▁sci	-9.87182
▁pass	-9.87191
▁controlled	-9.8726
▁substantially	-9.87272
▁fly	-9.87295
▁convert	-9.87344
▁fine	-9.87438
▁e	-9.8745
▁wh	-9.87482
▁vot	-9.87609
▁ease	-9.87789
ishi	-9.88034
▁metals	-9.88146
▁nbc	-9.88317
▁ready	-9.88537
▁healthy	-9.88666
▁weakness	-9.88673
▁confidence	-9.8876
▁sells	-9.88825
trust	-9.88851
▁finished	-9.88899
▁moment	-9.8899
▁amendment	-9.89011
▁highway	-9.89049
▁contribut	-9.89061
▁certificates	-9.89085
▁contrast	-9.89087
▁ground	-9.89105
▁practices	-9.89183
▁defendants	-9.89203
▁signal	-9.89316
▁proposals	-9.89604
▁mon	-9.89641
▁seats	-9.89656
▁rock	-9.89709
▁books	-9.89717
▁critics	-9.8974
communications	-9.89917
▁values	-9.89946
▁faces	-9.90076
▁ordered	-9.90218
▁regular	-9.90379
▁explain	-9.9055
▁florida	-9.90604
▁liquidity	-9.9061
▁gross	-9.90616
▁lee	-9.90646
▁responsible	-9.90649
▁weekend	-9.907
▁challenge	-9.90706
▁employment	-9.90758
▁bigger	-9.90793
▁gone	-9.90799
▁mc	-9.9083
▁prospect	-9.90979
▁station	-9.91008
▁title	-9.91011
ent	-9.91103
▁10	-9.91106
▁instruments	-9.91257
▁barrels	-9.91321
▁assume	-9.91357
▁managed	-9.91374
▁representatives	-9.91431
▁played	-9.91456
▁thrifts	-9.91756
▁cent	-9.91796
▁roll	-9.91865
▁enter	-9.92062
om	-9.92115
ish	-9.92136
▁leav	-9.9214
▁remained	-9.92241
▁surge	-9.92291
ers	-9.92344
7	-9.92389
▁hunt	-9.92426
▁crude	-9.92484
▁minor	-9.9249
▁prior	-9.9249
▁authorities	-9.92498
▁finding	-9.92519
▁stopped	-9.92529
▁losing	-9.92545
▁families	-9.92622
▁producing	-9.92653
ile	-9.92803
▁relationship	-9.92815
▁advantage	-9.92841
▁front	-9.92841
▁spot	-9.93205
te	-9.93228
▁imp	-9.93268
▁pace	-9.93409
lip	-9.937
▁blacks	-9.93899
▁sides	-9.94109
▁ounce	-9.94109
▁slipp	-9.94234
tive	-9.94296
▁send	-9.94322
▁exact	-9.94407
▁obvious	-9.94409
▁nekoosa	-9.94411
▁utility	-9.94413
▁frankfurt	-9.94416
▁leadership	-9.9442
▁felt	-9.94441
▁visit	-9.94481
▁abroad	-9.94509
▁soared	-9.94517
ate	-9.94602
▁serve	-9.94721
▁scandal	-9.94769
▁affiliate	-9.94769
▁pharmaceutical	-9.94774
appears	-9.94848
▁condition	-9.94885
▁attorneys	-9.94937
▁promotion	-9.94976
▁none	-9.94987
▁primar	-9.95114
▁detail	-9.95161
▁candidates	-9.95328
▁names	-9.95366
▁core	-9.95405
▁rumors	-9.95408
food	-9.95506
▁describe	-9.95528
▁bit	-9.95731
pite	-9.95802
v	-9.95997
ness	-9.96048
▁extend	-9.96122
▁settle	-9.96138
▁operates	-9.96142
▁immediate	-9.96147
▁models	-9.96149
▁intend	-9.96154
▁ch	-9.96322
tex	-9.96336
rban	-9.96343
▁excess	-9.96362
▁oakland	-9.96372
▁houston	-9.96372
▁prudential	-9.96378
▁extraordinar	-9.9638
▁purchasing	-9.96416
▁suspended	-9.96443
▁encourage	-9.9645
▁temporary	-9.96467
▁guarantee	-9.96499
▁older	-9.96604
yield	-9.96621
▁stronger	-9.96698
▁stress	-9.96782
▁statistics	-9.96787
▁intended	-9.96804
▁decisions	-9.96824
▁suggested	-9.96861
▁patients	-9.96944
▁parents	-9.9721
stock	-9.97361
▁goal	-9.97407
▁ship	-9.97678
▁follows	-9.97767
▁fis	-9.97797
▁stage	-9.97816
▁establish	-9.98003
▁fail	-9.983
▁renew	-9.98316
▁hot	-9.98326
▁sugar	-9.98345
▁extra	-9.98348
▁wife	-9.98359
▁twice	-9.98363
▁file	-9.98363
▁church	-9.98365
▁fair	-9.9837
▁compromise	-9.98376
▁moderate	-9.98385
▁boeing	-9.98387
▁assistance	-9.9839
▁direction	-9.98398
▁wonder	-9.98418
▁music	-9.98458
▁judges	-9.98489
▁wang	-9.98598
▁mca	-9.98613
▁italy	-9.98616
▁argue	-9.98623
▁determined	-9.98669
▁studies	-9.98703
▁confirmed	-9.98705
ether	-9.98752
▁flight	-9.98817
▁task	-9.98823
▁discussions	-9.98932
▁provid	-9.99098
of	-9.99168
▁odd	-9.99174
▁respond	-9.99214
▁pages	-9.99307
▁cutting	-9.9944
▁buyer	-9.9961
lett	-9.99694
ook	-9.99709
▁fairly	-9.99792
▁happen	-9.99913
▁shopp	-9.99924
▁structur	-9.99969
▁regard	-10.0006
▁king	-10.0019
▁disclose	-10.0022
▁tend	-10.0034
▁select	-10.0037
▁citicorp	-10.0041
▁hollywood	-10.0041
▁restrict	-10.0042
▁negotiating	-10.0043
▁wake	-10.0043
▁movies	-10.0043
▁coverage	-10.0046
▁river	-10.005
▁hear	-10.0063
▁sam	-10.0065
▁training	-10.0069
▁consultants	-10.0084
▁check	-10.0089
▁professor	-10.0089
▁movement	-10.0095
▁jan	-10.0101
▁wait	-10.0109
▁appeared	-10.0131
▁walk	-10.0132
▁senators	-10.0141
col	-10.0143
▁commitments	-10.0175
▁automo	-10.019
▁lambert	-10.0204
▁guarantees	-10.0211
▁confirm	-10.0217
▁ii	-10.0238
▁event	-10.0238
▁quiet	-10.0248
▁mountain	-10.0249
▁volatile	-10.025
▁wide	-10.025
▁usair	-10.0251
▁child	-10.0252
▁hud	-10.0254
formed	-10.0255
▁beat	-10.0261
▁indication	-10.0263
▁mining	-10.0276
▁mine	-10.0276
▁hire	-10.0282
▁factory	-10.0283
▁swings	-10.0292
▁navy	-10.0293
▁vehicle	-10.03
▁written	-10.03
▁aug	-10.0301
▁resolution	-10.0301
▁patent	-10.0301
▁pursue	-10.0304
▁joined	-10.0316
▁strategi	-10.0328
jr	-10.0334
▁word	-10.0343
▁meetings	-10.0358
▁warrants	-10.0361
citing	-10.0362
▁throw	-10.0368
▁formal	-10.0384
im	-10.0402
ral	-10.0405
▁ne	-10.0411
ied	-10.0419
▁door	-10.0419
▁style	-10.042
▁adjust	-10.042
mex	-10.044
▁advisers	-10.0444
berg	-10.0453
▁mgm	-10.046
▁crisis	-10.0461
▁beijing	-10.0462
▁saturday	-10.0462
▁criticism	-10.0462
▁initiative	-10.0462
▁parliament	-10.0462
▁responsibility	-10.0463
▁shut	-10.0472
▁uses	-10.0477
▁suggests	-10.0483
▁refused	-10.0484
lying	-10.0495
▁served	-10.0507
▁pr	-10.0507
▁carolina	-10.0518
▁reaction	-10.052
▁mere	-10.0523
▁farm	-10.0542
▁fac	-10.0561
▁regulations	-10.0564
grade	-10.0588
▁upon	-10.0615
▁maxim	-10.0631
▁returned	-10.0651
▁creat	-10.0669
▁ma	-10.0674
▁brazil	-10.0679
▁square	-10.0679
▁saatchi	-10.0679
▁ceiling	-10.0679
▁singapore	-10.0679
▁personnel	-10.0679
▁supposed	-10.0679
▁machinists	-10.068
▁switzerland	-10.068
▁exploration	-10.068
▁critical	-10.0685
▁foot	-10.069
▁worried	-10.0693
▁hill	-10.0694
▁ski	-10.0695
▁forest	-10.0699
▁politics	-10.07
▁apply	-10.0706
▁camp	-10.0716
▁initially	-10.073
▁location	-10.0734
▁picture	-10.074
▁audience	-10.074
▁defend	-10.0742
▁operator	-10.0744
▁drives	-10.0758
sale	-10.0765
ey	-10.0771
▁ec	-10.0774
▁insured	-10.0797
▁attribute	-10.081
west	-10.0812
▁simple	-10.0814
▁cap	-10.0815
▁weekly	-10.0819
ation	-10.0841
▁chase	-10.0841
▁ensur	-10.0856
▁pe	-10.0875
▁illegal	-10.0878
▁quick	-10.0878
il	-10.0879
▁approve	-10.089
▁louis	-10.09
▁coffee	-10.0901
▁language	-10.0901
▁temporarily	-10.0902
▁membership	-10.0902
▁atlanta	-10.0902
▁governor	-10.0904
▁nobody	-10.0906
night	-10.0908
▁register	-10.0909
▁shipping	-10.0911
▁fallen	-10.0914
▁easily	-10.0917
da	-10.0918
▁rival	-10.0931
▁politicians	-10.0934
▁army	-10.0934
fic	-10.094
▁argued	-10.094
▁happened	-10.0941
▁scienti	-10.0946
▁entered	-10.0963
▁generation	-10.0967
▁circuit	-10.0967
▁answer	-10.0967
▁resignation	-10.0968
▁grain	-10.0974
▁manufacturer	-10.0974
▁publisher	-10.0974
▁matters	-10.099
▁eye	-10.1005
▁wine	-10.1016
▁equivalent	-10.1028
▁games	-10.1031
▁fred	-10.104
▁lives	-10.1053
owned	-10.1055
▁rare	-10.106
▁card	-10.1068
▁cd	-10.1075
zo	-10.1078
▁courts	-10.1095
▁records	-10.1098
loss	-10.111
▁branch	-10.1121
▁worse	-10.1124
▁chamber	-10.1128
▁cautious	-10.1128
▁tentative	-10.1128
▁colleagues	-10.1129
▁controversial	-10.1129
▁piece	-10.113
▁tower	-10.1132
▁setting	-10.1133
▁monitor	-10.1139
▁seasonal	-10.1144
▁nature	-10.115
▁phel	-10.1153
▁covered	-10.1161
▁asia	-10.1162
▁normally	-10.1163
elerate	-10.1165
▁taxpayers	-10.1165
▁heat	-10.1171
▁proceedings	-10.1173
▁road	-10.1176
▁coup	-10.1179
▁factor	-10.1179
▁pact	-10.1182
digit	-10.1196
▁student	-10.1199
▁semiconductor	-10.12
▁reporters	-10.1206
▁damages	-10.1209
▁intel	-10.1239
▁investing	-10.1242
▁institution	-10.1242
▁votes	-10.1253
▁lawsuits	-10.1262
▁specialists	-10.1263
ster	-10.127
▁agents	-10.1278
▁aids	-10.128
trading	-10.1283
▁chip	-10.1291
item	-10.1301
▁prospects	-10.1307
▁costly	-10.1307
▁con	-10.1323
▁acquir	-10.133
▁fla	-10.1336
▁aggressive	-10.1338
▁hall	-10.1351
▁video	-10.136
▁reluctan	-10.1361
▁presence	-10.1361
▁outlook	-10.1361
▁editorial	-10.1362
▁technologies	-10.1362
▁extent	-10.1367
▁concept	-10.1367
▁strategies	-10.1368
bank	-10.1369
▁concluded	-10.1372
▁rapidly	-10.1379
▁adopted	-10.1384
▁founder	-10.1391
aid	-10.1395
id	-10.14
▁van	-10.1402
▁rail	-10.1425
▁garden	-10.1437
▁restaurant	-10.1438
▁obligation	-10.1438
▁household	-10.1438
▁corporation	-10.1441
▁views	-10.1447
ies	-10.1468
▁choice	-10.1471
▁died	-10.1474
▁lowered	-10.1483
▁liv	-10.1484
▁letters	-10.1488
▁agent	-10.1488
▁giants	-10.1493
▁fields	-10.15
▁fill	-10.1507
tsu	-10.1507
▁strip	-10.1509
▁ran	-10.1511
▁inside	-10.1517
ecutive	-10.1532
▁spie	-10.1533
▁agreements	-10.155
nnie	-10.1557
risk	-10.1573
way	-10.1577
▁surprise	-10.1584
▁middle	-10.1597
▁enjoy	-10.1598
▁ogilvy	-10.1598
▁squeeze	-10.1598
▁stearns	-10.1598
▁graphics	-10.1599
▁principle	-10.1599
▁hampshire	-10.1599
▁resistance	-10.1599
▁philadelphia	-10.1599
▁roman	-10.1601
▁integrated	-10.1602
▁gr	-10.1603
▁specialty	-10.1603
▁committed	-10.1605
▁miller	-10.1606
▁repeated	-10.1609
▁permit	-10.161
▁warned	-10.161
▁possibilit	-10.1612
▁slide	-10.1622
▁guaranteed	-10.1628
▁consist	-10.163
▁search	-10.1632
▁ones	-10.1637
▁metal	-10.164
▁fresh	-10.1646
▁cold	-10.165
▁enterprises	-10.1661
▁reporting	-10.1666
▁exposure	-10.168
▁studio	-10.1684
port	-10.1694
▁crop	-10.1694
▁mother	-10.17
urged	-10.1706
▁poll	-10.1729
▁wa	-10.1744
▁pictures	-10.1774
▁reduc	-10.1806
rence	-10.1813
▁hearings	-10.1818
▁realize	-10.1821
▁mu	-10.1828
\/	-10.1834
▁prison	-10.1836
▁screen	-10.1842
▁enormous	-10.1842
▁christmas	-10.1842
▁circumstances	-10.1843
▁mention	-10.1843
▁employ	-10.1853
▁pu	-10.1854
▁rico	-10.1855
▁shipments	-10.1862
▁exclud	-10.1865
▁participants	-10.187
▁extended	-10.1883
▁constitutional	-10.1886
▁kill	-10.19
▁pipeline	-10.193
▁commitment	-10.1931
rew	-10.1934
▁looks	-10.1934
▁warning	-10.1936
▁ha	-10.1936
atlantic	-10.1944
▁career	-10.1946
▁contends	-10.1948
▁lev	-10.1956
▁waste	-10.1962
▁privately	-10.1962
▁comfort	-10.1966
▁retailers	-10.1977
▁si	-10.1978
▁genes	-10.1988
technology	-10.1998
▁league	-10.202
▁administrati	-10.2026
▁accuse	-10.2033
▁address	-10.2045
▁processing	-10.2053
▁character	-10.2091
▁miami	-10.2091
▁fleet	-10.2092
▁hungary	-10.2092
▁departure	-10.2092
▁football	-10.2092
▁mitchell	-10.2092
▁attitude	-10.2092
▁pittsburgh	-10.2092
▁pennsylvania	-10.2093
▁cooperation	-10.2093
▁banco	-10.2099
▁modern	-10.21
▁differences	-10.2103
▁faster	-10.2106
▁marsh	-10.2108
▁status	-10.2113
▁ratio	-10.2115
▁culture	-10.2116
▁lang	-10.212
▁harris	-10.212
▁license	-10.212
▁reforms	-10.2122
▁unlikely	-10.2127
▁collapsed	-10.2129
▁lenders	-10.2132
▁default	-10.2147
▁forecasts	-10.2166
▁ties	-10.2174
▁shot	-10.2177
▁ar	-10.2188
▁easi	-10.2194
die	-10.2198
▁users	-10.2202
ious	-10.2212
▁ni	-10.2212
purchase	-10.222
▁code	-10.2231
ith	-10.2234
▁cath	-10.2261
▁recover	-10.2279
▁banker	-10.2316
▁limits	-10.2318
▁anticipated	-10.2318
▁slid	-10.2332
▁brook	-10.2336
bell	-10.234
▁speech	-10.2348
▁douglas	-10.2348
▁currencies	-10.2349
▁widespread	-10.2349
▁commodities	-10.2349
▁inventories	-10.2349
▁unemployment	-10.2349
▁academ	-10.2349
▁otherwise	-10.2352
▁tumbled	-10.2356
▁frequently	-10.2357
▁branches	-10.2358
▁father	-10.2359
▁kemp	-10.2359
▁beach	-10.2361
▁awarded	-10.2371
▁carried	-10.2372
ta	-10.2383
▁grown	-10.2385
▁citizens	-10.2389
▁critic	-10.2398
▁carriers	-10.2405
▁ruled	-10.2409
▁jeff	-10.241
ir	-10.2417
▁projection	-10.2422
▁cells	-10.2448
▁walter	-10.2449
▁expense	-10.2451
▁coal	-10.2457
erial	-10.2479
▁iran	-10.2483
▁friends	-10.2487
▁impose	-10.2487
rated	-10.2491
etting	-10.2503
▁bob	-10.2507
▁declar	-10.2508
▁commissions	-10.2511
▁heard	-10.2512
ated	-10.2514
▁fashion	-10.2519
▁retailing	-10.2525
▁las	-10.2529
largest	-10.254
▁calling	-10.2556
▁scott	-10.2573
▁published	-10.2584
▁halt	-10.2585
▁gra	-10.2586
▁friendly	-10.2597
▁link	-10.26
ical	-10.2603
▁guard	-10.2606
▁taiwan	-10.2611
▁brew	-10.2611
▁peabody	-10.2611
▁veteran	-10.2611
▁bolster	-10.2611
▁progress	-10.2611
▁cellular	-10.2611
▁gasoline	-10.2611
▁suspect	-10.2611
▁unsecured	-10.2612
▁merchandise	-10.2612
▁observers	-10.2612
▁subcommittee	-10.2612
▁disappointing	-10.2612
▁stories	-10.2613
▁attractive	-10.2613
▁slash	-10.2614
▁caught	-10.2615
▁carrie	-10.262
▁organiz	-10.2627
▁rooms	-10.2634
▁democracy	-10.2643
mond	-10.2663
▁expanded	-10.2667
gel	-10.2672
▁badly	-10.2677
▁faced	-10.2681
▁contributions	-10.2689
▁employers	-10.2692
raw	-10.2693
▁sets	-10.2694
▁gre	-10.2696
▁stein	-10.2713
▁pilot	-10.2718
pan	-10.2736
ola	-10.2741
▁newspapers	-10.2741
▁offerings	-10.2746
▁mcdon	-10.2759
▁recognize	-10.2759
▁playing	-10.2769
▁draw	-10.2791
▁knows	-10.2793
▁race	-10.2805
▁comments	-10.2807
▁guy	-10.2808
dy	-10.281
▁filled	-10.2811
▁advis	-10.2813
▁penn	-10.2825
▁hills	-10.2836
▁blood	-10.2846
▁alternatives	-10.2854
▁resume	-10.2859
▁fo	-10.2864
▁tobacco	-10.2881
▁nervous	-10.2881
▁storage	-10.2881
▁maxwell	-10.2881
▁memory	-10.2881
▁identify	-10.2882
▁population	-10.2882
▁impossible	-10.2882
▁allegations	-10.2882
▁steady	-10.2882
▁acceptance	-10.2882
▁sunday	-10.2882
▁yeargin	-10.2883
▁fellow	-10.2884
▁spain	-10.2884
▁applied	-10.2884
▁machinery	-10.2887
▁orange	-10.2888
▁changing	-10.2888
▁assembly	-10.289
▁handling	-10.2901
▁gap	-10.2909
▁surprised	-10.2909
▁beer	-10.2923
ross	-10.2924
q	-10.2931
field	-10.2964
▁closer	-10.2976
▁disk	-10.2991
king	-10.2992
▁unfair	-10.2992
▁channel	-10.2996
▁plastic	-10.2997
▁fundamental	-10.2997
▁lawsuit	-10.2997
▁merchant	-10.2998
▁specialist	-10.2999
▁insurer	-10.3001
chip	-10.3012
▁player	-10.3014
▁appointed	-10.3021
▁financier	-10.3027
▁identified	-10.3032
hi	-10.3044
heim	-10.3054
▁worker	-10.3061
law	-10.3075
▁sufficient	-10.3085
▁thin	-10.3088
▁foods	-10.3091
▁suits	-10.3097
▁site	-10.3103
▁boom	-10.3105
▁seeks	-10.3106
▁wear	-10.3119
▁franchise	-10.3119
erous	-10.312
▁recorded	-10.3131
▁widen	-10.3133
▁sudden	-10.3135
▁severe	-10.3142
▁introduce	-10.3143
▁eliminate	-10.3152
▁opec	-10.3157
▁pulp	-10.3158
▁zero	-10.3158
▁nixon	-10.3158
▁vietnam	-10.3159
▁hanover	-10.3159
▁thompson	-10.3159
▁honecker	-10.3159
▁liberal	-10.3159
▁permanent	-10.3159
▁elaborate	-10.3159
▁viacom	-10.3159
▁maintenance	-10.3159
▁priority	-10.3159
▁subsidiaries	-10.3159
▁massachusetts	-10.316
▁downturn	-10.316
▁eager	-10.316
▁northeast	-10.316
▁scale	-10.316
▁subsequent	-10.3161
▁profitability	-10.3162
▁switch	-10.3171
▁educational	-10.3175
▁barr	-10.3179
▁sole	-10.318
▁pack	-10.3182
▁afford	-10.3185
▁troubles	-10.3188
▁harder	-10.319
▁threatened	-10.3192
▁complained	-10.3194
▁nec	-10.3211
▁recalls	-10.323
ely	-10.3239
▁plead	-10.3244
▁applications	-10.3246
▁hop	-10.3254
▁violations	-10.3264
gun	-10.3269
▁num	-10.3276
▁connection	-10.3281
▁purpose	-10.3282
▁message	-10.3284
▁foundation	-10.3284
▁egg	-10.33
▁reading	-10.3302
▁networks	-10.3306
▁donald	-10.3318
▁wor	-10.3327
▁dealing	-10.3346
ways	-10.3346
▁enforcement	-10.3381
▁flights	-10.3382
▁counsel	-10.3387
▁greens	-10.3406
N	-10.341
▁rapid	-10.342
▁announce	-10.3421
▁bloc	-10.3422
▁turns	-10.3423
▁delays	-10.3424
▁refund	-10.3425
▁india	-10.3433
▁dead	-10.3434
▁determine	-10.3435
▁kkr	-10.3442
▁burden	-10.3444
▁nikkei	-10.3444
▁unveil	-10.3444
▁illinois	-10.3444
▁sluggish	-10.3444
▁consumption	-10.3445
▁compensation	-10.3445
▁remic	-10.3445
▁nationwide	-10.345
▁divide	-10.3453
▁bott	-10.3458
▁retired	-10.3463
▁consent	-10.3466
▁turner	-10.3474
▁complain	-10.3478
ua	-10.3483
▁stemm	-10.3493
▁containers	-10.3502
▁arms	-10.3514
▁shop	-10.3517
▁dai	-10.3518
known	-10.3521
▁contra	-10.3521
▁aside	-10.3533
▁compete	-10.3536
▁expanding	-10.3539
▁drill	-10.3543
▁represented	-10.3549
▁bu	-10.3553
▁tape	-10.3559
▁dealer	-10.356
▁fighting	-10.3563
▁audit	-10.3572
▁freedom	-10.3576
▁syndicate	-10.3576
▁curb	-10.358
mer	-10.3584
▁shops	-10.3608
sides	-10.3616
▁admit	-10.3617
▁miss	-10.3619
▁authoriz	-10.3625
▁shortly	-10.3627
▁theater	-10.3637
▁cast	-10.3651
▁operators	-10.3653
▁rivals	-10.3658
▁ill	-10.3675
▁react	-10.3681
▁concentrate	-10.3681
▁participate	-10.3691
▁royal	-10.3696
elimina	-10.3699
▁table	-10.3716
ave	-10.3717
ol	-10.3725
▁seat	-10.3729
bache	-10.3732
▁chr	-10.3732
▁constitution	-10.3735
▁ortega	-10.3738
▁husband	-10.3738
▁engelken	-10.3738
▁delmed	-10.3738
▁virginia	-10.3738
▁glass	-10.3738
▁steinhardt	-10.3739
▁bailout	-10.3739
▁reputation	-10.3739
▁bellsouth	-10.3739
▁opportunities	-10.3739
▁rat	-10.374
▁winter	-10.374
▁reinsurance	-10.374
ensive	-10.3742
▁crack	-10.3742
▁turnover	-10.3744
▁probab	-10.3747
▁successor	-10.375
▁supporters	-10.375
▁withdrawal	-10.3751
ark	-10.3753
▁alex	-10.3757
▁cosmetics	-10.3776
▁catch	-10.3783
▁novel	-10.3791
dale	-10.3798
▁chains	-10.3806
▁engine	-10.3808
ne	-10.3813
▁carl	-10.3837
▁planners	-10.3838
▁schedule	-10.3842
▁theory	-10.3855
▁aide	-10.3856
▁grant	-10.386
▁sex	-10.386
related	-10.3863
▁organizations	-10.3865
▁holiday	-10.3876
▁warrant	-10.388
▁experiment	-10.3881
▁portfolios	-10.3885
▁retailer	-10.39
▁weight	-10.3916
▁train	-10.3921
▁concede	-10.3939
tv	-10.394
▁heads	-10.3948
hour	-10.3956
reh	-10.3964
▁targets	-10.3965
▁stands	-10.3967
▁bi	-10.397
▁ot	-10.3984
▁collect	-10.3998
niel	-10.4
▁rebound	-10.4004
▁becom	-10.4005
▁threaten	-10.4014
▁trans	-10.4015
▁efficient	-10.4023
▁exclusive	-10.4023
▁saab	-10.4035
etna	-10.4035
▁rang	-10.4037
▁bulk	-10.404
▁roger	-10.404
▁turmoil	-10.4041
▁english	-10.4041
▁routine	-10.4041
▁advocate	-10.4041
▁persuade	-10.4041
▁psyllium	-10.4041
▁mesa	-10.4041
▁sensitive	-10.4041
▁baltimore	-10.4041
▁definitive	-10.4041
▁consensus	-10.4041
▁berlin	-10.4044
polit	-10.4045
▁metro	-10.4045
▁sweep	-10.4046
▁somewhat	-10.4048
▁choose	-10.4048
▁charter	-10.4051
tle	-10.4052
▁intense	-10.4053
▁weaker	-10.4057
▁considerable	-10.4058
▁agriculture	-10.4059
▁achieved	-10.4063
▁advice	-10.4063
▁rocke	-10.4066
▁deny	-10.4066
▁box	-10.4081
▁fre	-10.4082
▁korean	-10.4088
▁mik	-10.4094
▁trends	-10.4103
▁stable	-10.4104
▁procedures	-10.4118
▁bo	-10.4122
exchange	-10.413
lo	-10.4156
▁expire	-10.4166
▁packages	-10.4172
▁admitt	-10.419
▁arrangement	-10.4191
▁rumor	-10.4191
▁argument	-10.4191
▁statements	-10.4192
▁display	-10.4196
ival	-10.4196
▁aware	-10.4196
▁engineers	-10.4196
fth	-10.4198
week	-10.4223
aul	-10.423
▁vi	-10.4234
▁restaurants	-10.4251
▁goals	-10.4294
▁broadcast	-10.4299
▁cheap	-10.4303
▁cran	-10.4303
▁di	-10.4324
▁engage	-10.4328
▁surplus	-10.4344
▁prefer	-10.4352
▁convict	-10.4352
ke	-10.4352
▁davis	-10.4353
▁delta	-10.4353
▁entrepreneur	-10.4353
▁gonzalez	-10.4353
▁regime	-10.4353
▁remember	-10.4353
▁cleveland	-10.4353
▁defensive	-10.4354
▁revolution	-10.4354
▁combination	-10.4354
▁donaldson	-10.4355
▁earth	-10.4355
▁edison	-10.4358
▁marine	-10.4363
▁broken	-10.4366
▁begins	-10.4369
▁victory	-10.4372
▁love	-10.4375
▁requir	-10.4375
▁compet	-10.4377
point	-10.4377
▁behalf	-10.4387
fund	-10.439
fell	-10.4396
▁friend	-10.4408
▁delayed	-10.4419
▁doubled	-10.4422
▁micro	-10.4426
▁gal	-10.4427
▁learning	-10.4438
▁spirits	-10.444
ice	-10.4443
body	-10.4445
▁hart	-10.4451
▁incentives	-10.4466
mura	-10.4467
▁repair	-10.4476
▁mills	-10.4485
dding	-10.4486
round	-10.4491
▁fur	-10.4493
▁dan	-10.4502
▁democrat	-10.4507
▁edition	-10.4509
▁engineer	-10.4516
thur	-10.4519
▁trip	-10.4523
▁eggs	-10.4525
▁device	-10.4543
▁borrowing	-10.4549
latin	-10.4558
▁legislati	-10.4564
▁bern	-10.4567
▁bio	-10.4582
tech	-10.4607
ately	-10.4615
▁simp	-10.462
▁broke	-10.4646
▁triple	-10.4652
▁indian	-10.4658
ather	-10.4662
▁notice	-10.4665
▁peace	-10.4668
▁constant	-10.467
▁sit	-10.467
vogel	-10.467
▁lilly	-10.4671
recapitalization	-10.4674
▁pont	-10.4674
▁com	-10.4675
▁confident	-10.4675
▁colgate	-10.4675
▁poverty	-10.4675
▁unfortunate	-10.4676
▁occurred	-10.4677
ney	-10.4679
▁collection	-10.4679
▁island	-10.4682
▁duty	-10.4686
▁reasonable	-10.4692
▁guide	-10.4694
▁abandoned	-10.4698
▁distributed	-10.4702
▁linked	-10.4712
▁midwest	-10.4714
▁appropriate	-10.4715
▁touch	-10.4719
rious	-10.4725
▁responded	-10.4726
▁sha	-10.4732
▁allian	-10.4736
▁mart	-10.4737
▁weapons	-10.4738
▁effectively	-10.4747
management	-10.4755
▁fit	-10.4763
▁lease	-10.4765
▁wave	-10.477
▁manage	-10.4779
▁deaths	-10.4782
▁sellers	-10.4798
▁meant	-10.4799
▁secret	-10.4817
▁enable	-10.4822
▁stadium	-10.4845
▁scenario	-10.4845
nian	-10.4846
▁brain	-10.4846
▁mainframe	-10.4847
▁science	-10.4847
▁senator	-10.4847
▁experiments	-10.485
corp	-10.4854
▁hoped	-10.4854
▁insider	-10.4859
▁purposes	-10.4862
pack	-10.4867
▁specialize	-10.4869
free	-10.487
▁text	-10.489
▁writer	-10.49
▁places	-10.4905
▁answers	-10.4909
▁ray	-10.4933
▁casino	-10.4934
▁declare	-10.4936
▁describ	-10.4948
▁charit	-10.4966
▁demands	-10.4968
▁forms	-10.4973
▁deep	-10.4979
▁achieve	-10.4985
▁perform	-10.499
▁mobil	-10.4991
▁adopt	-10.4997
90	-10.5002
▁toyota	-10.5003
▁lufkin	-10.5003
▁poison	-10.5003
▁eased	-10.5003
▁duties	-10.5004
▁henry	-10.5004
▁lift	-10.5004
▁wcrs	-10.5005
▁rape	-10.5005
▁detroit	-10.5008
▁crucial	-10.5009
▁concrete	-10.5009
▁favorable	-10.5009
▁pollution	-10.5009
▁suspension	-10.5009
▁credibility	-10.5009
▁connecticut	-10.5009
▁conversation	-10.5009
▁nevertheless	-10.5009
▁loyalty	-10.501
▁circulation	-10.501
▁contact	-10.501
▁packaging	-10.5011
▁distributor	-10.5011
▁coors	-10.5013
for	-10.5014
▁master	-10.5017
▁weaken	-10.5019
▁sustained	-10.5022
▁sentence	-10.5024
▁struggle	-10.5026
▁papers	-10.5035
bi	-10.5036
▁coca	-10.5036
▁solid	-10.5036
▁recommended	-10.5039
▁coke	-10.504
▁secured	-10.5049
▁christ	-10.507
▁delivered	-10.5078
▁pressures	-10.5083
▁attribut	-10.5085
▁har	-10.5092
▁page	-10.51
▁ru	-10.5103
▁artist	-10.5115
▁assum	-10.5138
▁risen	-10.5139
▁indicat	-10.5145
ci	-10.5152
nt	-10.5152
▁oppose	-10.5162
▁pho	-10.5175
per	-10.5181
▁basket	-10.5184
▁associat	-10.5187
ch	-10.5188
▁assumption	-10.5189
aiwa	-10.519
▁candidate	-10.5191
▁desk	-10.5192
▁underwriter	-10.52
▁sheet	-10.5202
▁plastics	-10.5207
top	-10.5213
uel	-10.5219
ny	-10.5225
▁ordinar	-10.5225
▁host	-10.523
▁testing	-10.523
amount	-10.5276
ut	-10.5276
▁charg	-10.528
▁copy	-10.5292
▁standing	-10.5299
▁author	-10.5302
▁caution	-10.5311
▁stretch	-10.5312
bus	-10.5312
▁crowd	-10.5315
▁revenues	-10.5315
▁strengthen	-10.532
▁manufacture	-10.5334
▁appro	-10.5343
▁dramatic	-10.5346
6	-10.5348
▁enhance	-10.5348
▁michigan	-10.5348
▁simmons	-10.5348
▁inquiry	-10.5348
▁thomson	-10.5348
▁suburb	-10.5348
▁surround	-10.5348
▁subsidies	-10.5348
▁hahn	-10.535
▁judicia	-10.5352
▁productivity	-10.5354
▁commonwealth	-10.5354
▁intent	-10.5354
xim	-10.5354
▁cheaper	-10.5355
▁permission	-10.5356
▁difficulties	-10.5356
▁unexpected	-10.5356
▁marketplace	-10.5356
▁driving	-10.536
▁stood	-10.536
▁gov	-10.5366
▁emerge	-10.5376
▁olive	-10.5377
▁steelmaker	-10.5381
▁feeling	-10.5392
▁districts	-10.5394
▁encouraged	-10.5397
▁timing	-10.54
▁rand	-10.5414
▁officers	-10.5418
rd	-10.544
▁sa	-10.5456
▁drew	-10.5458
▁teachers	-10.5461
▁ride	-10.5461
ual	-10.5467
▁prepare	-10.5469
▁premiums	-10.5472
▁quarters	-10.5475
▁discipline	-10.5476
▁fans	-10.5483
▁complaints	-10.5484
ker	-10.5488
erts	-10.5488
ila	-10.5488
▁rank	-10.5496
invested	-10.5508
▁oversee	-10.5515
▁feed	-10.5521
▁ideas	-10.5524
▁referr	-10.5538
▁cycle	-10.554
▁dominate	-10.554
▁automobile	-10.5541
▁swap	-10.5541
▁freeway	-10.5542
▁consideration	-10.5543
ity	-10.5544
stein	-10.5569
▁mergers	-10.5582
▁killed	-10.5587
▁governments	-10.5596
comes	-10.5599
▁holder	-10.5609
▁filings	-10.5622
istance	-10.5645
scale	-10.5659
▁slump	-10.5667
sir	-10.5684
▁struggl	-10.5687
▁tight	-10.5691
▁possibl	-10.5696
▁pill	-10.5699
▁collateral	-10.5705
▁gillett	-10.5705
▁giuliani	-10.5705
▁merksamer	-10.5705
▁telegraph	-10.5705
▁zealand	-10.5705
▁gamble	-10.5705
▁vegas	-10.5705
▁marcos	-10.5705
▁kennedy	-10.5705
▁appreciation	-10.5705
▁maynard	-10.5705
▁judgment	-10.5706
▁dell	-10.5708
▁milk	-10.5709
▁welcome	-10.5709
▁conviction	-10.571
▁refinery	-10.571
▁mips	-10.5714
▁wish	-10.5716
▁promote	-10.572
ay	-10.5727
▁pi	-10.5731
▁treaty	-10.5732
▁dump	-10.5735
▁acknowledged	-10.5736
▁body	-10.5736
▁loose	-10.5737
▁aggressively	-10.5741
▁stick	-10.5741
▁allies	-10.5743
▁opponents	-10.5757
ia	-10.5759
coupon	-10.5763
▁teams	-10.5766
▁legislators	-10.5768
▁stone	-10.5776
capped	-10.5777
▁replaced	-10.579
▁indicators	-10.5792
▁partial	-10.5793
der	-10.5807
▁requested	-10.581
▁emerg	-10.5815
▁kids	-10.5821
▁conservatives	-10.5822
card	-10.5824
▁remarks	-10.5824
reaching	-10.5824
▁decades	-10.5838
▁str	-10.5842
▁bikes	-10.5843
▁meaning	-10.5855
▁rush	-10.586
▁consolidat	-10.5861
▁tr	-10.5862
dropping	-10.5864
wood	-10.5866
▁mount	-10.5869
▁sciences	-10.5882
▁commissioner	-10.5896
shi	-10.5903
▁deadline	-10.591
▁technique	-10.5912
▁disease	-10.5913
▁representative	-10.5913
▁resort	-10.5915
▁expert	-10.5915
▁bike	-10.5917
▁dealings	-10.5925
▁farmer	-10.5926
▁steven	-10.5932
▁permitt	-10.5935
ine	-10.5945
▁succeeding	-10.5946
▁merge	-10.5949
▁consolidate	-10.5969
▁cards	-10.5974
nson	-10.5978
▁magn	-10.5979
go	-10.598
▁checks	-10.5987
hail	-10.599
▁stem	-10.5991
▁jo	-10.5993
▁jacobs	-10.5993
▁acts	-10.604
▁retire	-10.6051
road	-10.6056
▁load	-10.6057
▁restore	-10.6067
▁promis	-10.6071
▁classic	-10.6071
▁remove	-10.6071
utch	-10.6075
▁asbestos	-10.6075
▁controversy	-10.6075
▁gyrations	-10.6075
▁penalties	-10.6075
▁receipts	-10.6075
▁rescue	-10.6075
▁category	-10.6075
▁memories	-10.6075
▁famous	-10.6075
▁penalty	-10.6075
▁speculators	-10.6075
▁indictment	-10.6075
▁medicine	-10.6075
▁straight	-10.6075
▁bartlett	-10.6075
▁disappointed	-10.6075
▁visitors	-10.6076
▁participation	-10.6076
▁boren	-10.6076
▁knight	-10.6077
▁winning	-10.6077
▁mature	-10.6077
▁rey	-10.6078
▁programming	-10.6079
ado	-10.6081
▁barney	-10.6081
▁analysis	-10.6082
▁controlling	-10.6085
▁regulation	-10.6085
▁showtime	-10.6089
donald	-10.6093
▁assess	-10.6094
▁anybody	-10.6096
▁businessmen	-10.6098
ge	-10.6111
life	-10.6114
▁divisions	-10.6116
ilson	-10.6116
▁vary	-10.6126
▁activists	-10.6128
▁entirely	-10.6138
well	-10.6141
looming	-10.6151
▁abortions	-10.6152
onald	-10.6152
▁elder	-10.6154
▁lies	-10.6163
rights	-10.6166
▁readers	-10.6169
▁germans	-10.6172
▁fired	-10.6191
▁publications	-10.62
▁maintained	-10.6206
▁sons	-10.6217
▁amr	-10.6225
▁features	-10.6232
▁contras	-10.6235
▁pitch	-10.6236
▁jail	-10.6254
▁contend	-10.6263
▁grants	-10.6265
▁causes	-10.6266
erry	-10.6266
▁ball	-10.6267
income	-10.6276
▁planes	-10.6282
▁apart	-10.6287
▁iron	-10.629
▁occur	-10.6292
▁disclosure	-10.6295
▁ticket	-10.6297
▁pattern	-10.6302
▁anticipate	-10.6309
▁bri	-10.6317
▁tw	-10.6318
ald	-10.632
▁sued	-10.6335
▁el	-10.6337
▁cleared	-10.6344
▁plea	-10.6348
▁whites	-10.6376
▁creativ	-10.6382
sh	-10.64
▁urg	-10.6402
▁findings	-10.6405
enz	-10.6412
▁sponsor	-10.6422
▁examine	-10.6423
▁revive	-10.6436
▁leverage	-10.6437
▁economics	-10.6441
ring	-10.6446
▁behavior	-10.646
▁cincinnati	-10.646
▁colombia	-10.646
▁jenrette	-10.646
▁minneapolis	-10.646
▁nonetheless	-10.646
▁petrochemical	-10.646
▁seidman	-10.646
▁sentiment	-10.646
▁copies	-10.646
▁texaco	-10.646
▁optimistic	-10.646
▁rallied	-10.646
▁gnp	-10.646
▁transport	-10.646
▁alaska	-10.646
▁iowa	-10.646
▁warren	-10.646
▁charities	-10.646
▁cotton	-10.646
▁false	-10.646
▁acres	-10.6461
▁outlets	-10.6461
▁knew	-10.6462
▁shape	-10.6462
▁respect	-10.6464
rice	-10.6465
▁danger	-10.6467
▁outcome	-10.6467
▁russian	-10.6467
▁fbi	-10.6471
▁fda	-10.6472
▁avenue	-10.6473
▁conner	-10.6475
▁foreigners	-10.648
▁resolved	-10.6482
▁slower	-10.649
▁classes	-10.6491
▁writing	-10.6493
▁freight	-10.6507
▁unsuccessful	-10.6509
▁busy	-10.651
▁promises	-10.6512
▁realized	-10.6514
▁appe	-10.6515
▁recovered	-10.6516
▁emphasis	-10.6522
more	-10.6525
▁wood	-10.6531
america	-10.6532
▁accompan	-10.6534
how	-10.6536
▁attracted	-10.6547
ra	-10.6549
▁discussed	-10.6553
▁mal	-10.6553
▁nas	-10.6564
▁courter	-10.6565
▁remov	-10.6574
fred	-10.6585
▁featur	-10.6612
▁breaking	-10.6631
▁owed	-10.6637
nix	-10.6638
rey	-10.664
men	-10.6667
▁polls	-10.6669
▁edge	-10.6675
▁sweet	-10.6678
bread	-10.6679
ley	-10.6688
▁tand	-10.6691
▁comparison	-10.6695
gary	-10.6696
ize	-10.6697
▁sta	-10.6698
▁airport	-10.6699
00-	-10.671
products	-10.6723
▁tire	-10.6735
ie	-10.6744
▁investigat	-10.6745
▁falls	-10.6746
▁contractor	-10.6764
nce	-10.6767
▁happens	-10.6775
where	-10.6775
air	-10.6776
gotten	-10.6792
▁treat	-10.6807
▁desir	-10.681
▁row	-10.6812
tric	-10.6831
▁capit	-10.6841
▁slight	-10.6851
▁thinking	-10.6854
▁bethlehem	-10.686
▁kellogg	-10.686
▁malaysia	-10.686
▁overhaul	-10.686
▁recognition	-10.686
▁tennessee	-10.686
▁multiple	-10.686
▁sanctions	-10.686
▁perspective	-10.6861
▁economies	-10.6861
▁cattle	-10.6861
▁submitted	-10.6861
▁factories	-10.6862
▁stability	-10.6862
▁reveal	-10.6862
▁quebecor	-10.6862
▁iii	-10.6863
▁apparel	-10.6863
▁downtown	-10.6863
▁travelers	-10.6864
▁favorite	-10.6865
▁contest	-10.6871
east	-10.6875
▁weather	-10.6876
▁cool	-10.6876
▁negotiated	-10.6877
▁somebody	-10.6878
ough	-10.6879
▁canceled	-10.688
▁compound	-10.6885
▁lire	-10.6887
proved	-10.6894
▁resident	-10.6899
▁printing	-10.6907
▁reductions	-10.6914
▁violate	-10.6917
▁eliminated	-10.6926
senate	-10.6927
▁fiat	-10.6929
▁missing	-10.6932
presented	-10.6935
▁obtained	-10.6945
ur	-10.695
soph	-10.6953
▁assumed	-10.6958
▁philippines	-10.6958
▁bidders	-10.6958
▁aspects	-10.6961
▁mil	-10.6973
▁mill	-10.6981
▁scores	-10.6987
▁frankl	-10.6987
▁bare	-10.6991
▁phase	-10.6994
▁tools	-10.6995
▁difficulty	-10.7005
▁accus	-10.7007
▁leaves	-10.7008
▁acknowledge	-10.7019
na	-10.7023
▁financially	-10.7048
▁rica	-10.7058
▁mainframes	-10.7059
▁recommend	-10.7065
▁republic	-10.7077
▁pounds	-10.7099
▁characters	-10.7101
▁stepp	-10.7103
▁rothschild	-10.7111
▁developments	-10.7113
▁degree	-10.7113
▁pool	-10.712
ore	-10.7122
▁illustrate	-10.7131
▁casualty	-10.714
▁fle	-10.714
▁solution	-10.7141
▁leads	-10.7142
▁pour	-10.7164
▁corr	-10.7181
▁complaint	-10.7188
▁lists	-10.7189
business	-10.7191
▁argues	-10.7198
▁port	-10.7224
▁cell	-10.7225
▁hospitals	-10.7226
▁pump	-10.7228
▁credits	-10.7234
▁publish	-10.7236
▁correct	-10.7249
▁pop	-10.7252
▁resolve	-10.7253
▁5	-10.7255
allen	-10.7256
▁ships	-10.7256
dom	-10.7263
▁impos	-10.7267
▁interpret	-10.7276
▁absorb	-10.7276
▁laboratories	-10.7276
▁lebanon	-10.7276
▁negotiable	-10.7276
▁satellite	-10.7276
▁taylor	-10.7276
▁escape	-10.7276
▁300-	-10.7276
▁climate	-10.7276
▁temple	-10.7277
▁tiger	-10.7277
▁harvard	-10.7277
▁ariz	-10.7277
▁importance	-10.7277
▁peak	-10.7277
▁lobbyist	-10.7277
▁wpp	-10.7277
▁donations	-10.7277
▁terrorism	-10.7278
▁dennis	-10.7278
▁struck	-10.7278
▁bitter	-10.7278
▁electricity	-10.7279
▁baby	-10.728
-19	-10.7281
▁wolf	-10.7284
▁happy	-10.7284
▁che	-10.7287
am	-10.7294
▁plaintiffs	-10.7302
proportion	-10.7304
▁borrowed	-10.7307
▁roy	-10.7309
▁suddenly	-10.7312
▁subscribers	-10.7316
▁ringers	-10.7317
▁bull	-10.7318
▁consequences	-10.7323
▁rebels	-10.7329
▁gray	-10.7333
vision	-10.7335
▁advised	-10.7345
2-	-10.7352
▁accident	-10.7358
▁taxable	-10.7359
▁son	-10.7364
▁seriously	-10.7366
▁refuse	-10.7377
▁fee	-10.7377
▁monitoring	-10.738
▁weigh	-10.7384
iled	-10.739
▁located	-10.739
▁count	-10.7401
▁powers	-10.7402
▁slowed	-10.7417
yama	-10.7422
▁adjustments	-10.7428
▁doctors	-10.7428
specified	-10.7431
▁breaker	-10.7483
financing	-10.7486
arco	-10.7495
▁cia	-10.7503
▁attend	-10.7512
ant	-10.7512
▁abuse	-10.753
reduction	-10.7531
thetic	-10.7537
▁legislature	-10.7543
bbed	-10.7547
▁scheme	-10.7547
▁neighborhood	-10.7548
▁scene	-10.7549
▁violation	-10.7551
▁flag	-10.7552
▁supplier	-10.7553
▁studying	-10.7553
▁prosecutor	-10.7558
▁aides	-10.7561
set	-10.7564
▁receiv	-10.7567
▁eyes	-10.7582
lecommunications	-10.7583
▁pieces	-10.7585
ese	-10.7585
ified	-10.761
▁plays	-10.7611
cious	-10.7612
▁pharmaceuticals	-10.7631
▁socialis	-10.7632
sys	-10.7636
▁unions	-10.7637
▁whit	-10.7644
ying	-10.7647
outs	-10.7663
▁instrument	-10.7664
▁install	-10.7675
▁finish	-10.7682
ahn	-10.7683
▁reject	-10.7685
▁mix	-10.7687
nty	-10.7688
▁proc	-10.7692
▁adequate	-10.77
▁injuries	-10.7711
▁missouri	-10.7711
▁testimony	-10.7711
▁turkey	-10.7711
▁diplomat	-10.7711
▁klein	-10.7711
▁expiration	-10.7711
ex	-10.7711
▁diversified	-10.7711
▁vermont	-10.7711
▁stuff	-10.7711
▁uncertain	-10.7711
▁turnaround	-10.7712
▁hardware	-10.7712
▁dangerous	-10.7712
▁reopen	-10.7712
▁assessment	-10.7712
▁evans	-10.7713
▁considerably	-10.7713
▁prince	-10.7713
▁witter	-10.7714
▁spill	-10.7717
▁plummeted	-10.7717
▁respectively	-10.7718
▁inventory	-10.7718
▁blow	-10.7718
▁premier	-10.7718
▁camera	-10.772
ad	-10.7721
▁stockholders	-10.7722
▁clinic	-10.7722
▁depressed	-10.7722
▁chosen	-10.7722
▁consistently	-10.7726
▁segments	-10.7728
▁engag	-10.7748
ably	-10.7753
▁knowledge	-10.7755
ide	-10.7759
▁improvements	-10.7763
▁ple	-10.7764
side	-10.7778
▁angel	-10.778
runs	-10.7781
▁deriv	-10.7783
▁combine	-10.7783
▁modestly	-10.7784
▁valu	-10.7788
▁dynamics	-10.7789
tion	-10.7791
▁disasters	-10.7804
▁distribute	-10.7807
▁converted	-10.7816
vin	-10.7817
▁barriers	-10.7826
▁designer	-10.7832
▁cigarettes	-10.784
▁asks	-10.7842
▁approached	-10.7843
▁christie	-10.7852
pc	-10.7867
▁partnerships	-10.7874
▁marginal	-10.7888
▁convince	-10.7894
▁feature	-10.7896
▁wages	-10.7904
edged	-10.7912
bol	-10.7917
▁extensi	-10.7931
▁sym	-10.7932
▁lo	-10.7935
▁barrel	-10.794
▁expires	-10.7944
▁moral	-10.7949
tiny	-10.7951
▁strict	-10.7962
ety	-10.7966
▁risky	-10.7968
bc	-10.7985
nish	-10.7989
down	-10.7992
▁eliminat	-10.7993
erto	-10.7999
▁covers	-10.8002
▁incentive	-10.8003
▁window	-10.8003
viewed	-10.8003
▁urge	-10.8003
▁doctor	-10.8004
▁adjustment	-10.8005
▁fined	-10.8007
▁label	-10.8008
▁appointment	-10.8016
ky	-10.803
▁jet	-10.803
▁oust	-10.804
▁exercis	-10.8041
▁pursu	-10.8042
la	-10.8042
▁exception	-10.8054
choice	-10.8055
▁mines	-10.8055
▁male	-10.8065
▁rain	-10.8067
▁wright	-10.8069
rance	-10.8078
▁seed	-10.8079
▁anc	-10.8083
▁explains	-10.8091
▁takeovers	-10.8091
▁manages	-10.8092
▁knock	-10.8121
▁professionals	-10.8125
standing	-10.8127
▁structures	-10.8142
▁restructure	-10.8144
boys	-10.8147
▁forward	-10.8148
▁loyal	-10.8165
▁carpenter	-10.8166
▁chevron	-10.8166
▁compliance	-10.8166
▁conglomerate	-10.8166
▁conspiracy	-10.8166
▁diluted	-10.8166
▁flexibility	-10.8166
▁florio	-10.8166
▁injured	-10.8166
▁kodak	-10.8166
▁lackluster	-10.8166
▁racketeering	-10.8166
▁brussels	-10.8166
▁independence	-10.8166
▁pencil	-10.8166
▁smoking	-10.8166
▁length	-10.8166
▁cocoa	-10.8166
▁introduction	-10.8166
▁kenne	-10.8166
▁respondents	-10.8166
▁laboratory	-10.8166
▁seoul	-10.8166
▁hooker	-10.8167
▁prevail	-10.8168
▁terminal	-10.8168
▁imf	-10.8169
▁produces	-10.8169
▁banned	-10.817
▁fargo	-10.8171
▁complicated	-10.8172
▁reality	-10.8174
▁federation	-10.8174
▁nearby	-10.8174
▁dismissed	-10.8177
▁hiring	-10.8177
▁pleased	-10.8179
▁crimes	-10.8185
▁var	-10.8186
▁dor	-10.8194
vest	-10.82
▁arab	-10.8201
▁precise	-10.8202
▁operational	-10.8202
▁trail	-10.8208
▁attempts	-10.8209
▁implications	-10.8209
▁allied	-10.8214
▁path	-10.8214
▁cru	-10.8218
▁moon	-10.8229
▁bridges	-10.823
ston	-10.8234
▁banc	-10.8239
▁motion	-10.8239
▁committees	-10.8243
▁posts	-10.8247
▁prohibit	-10.8248
▁roberts	-10.826
▁slowly	-10.8261
▁performed	-10.8272
half	-10.8277
▁lung	-10.8289
▁plane	-10.8306
▁eag	-10.8317
▁allows	-10.8319
tting	-10.832
▁mi	-10.8328
▁kh	-10.8338
▁solutions	-10.8344
▁pit	-10.8348
▁contractors	-10.8355
▁concedes	-10.836
▁exporter	-10.8379
▁bells	-10.8383
▁mini	-10.8383
continued	-10.8386
lane	-10.8387
▁hedge	-10.8388
▁inner	-10.8394
▁discounting	-10.8404
dge	-10.8421
kel	-10.8432
▁architect	-10.8432
▁franc	-10.8433
mission	-10.8437
▁te	-10.8446
▁sectors	-10.8464
▁redemption	-10.8473
▁newsletter	-10.8475
▁mistake	-10.8478
▁competitor	-10.8479
▁billing	-10.8479
growing	-10.8479
▁interesting	-10.8481
audi	-10.8482
cing	-10.8487
▁planner	-10.8487
▁apartment	-10.8492
▁remark	-10.8496
▁shortage	-10.8498
▁streets	-10.8514
▁worrie	-10.8516
▁intention	-10.8518
ached	-10.8519
tile	-10.8529
▁stakes	-10.853
logic	-10.8548
▁affiliates	-10.8554
ible	-10.8562
each	-10.8571
▁easing	-10.8575
▁killing	-10.8578
ick	-10.859
▁departments	-10.859
▁southwest	-10.8591
▁insists	-10.8592
▁190	-10.8601
ha	-10.8601
▁murder	-10.8606
▁fin	-10.8619
▁reinforce	-10.8622
▁steve	-10.863
▁survive	-10.8631
▁bottle	-10.8632
▁span	-10.8635
▁vic	-10.8637
▁secure	-10.8637
viation	-10.8641
▁aftermath	-10.8642
▁berkeley	-10.8642
▁cfcs	-10.8642
▁exchequer	-10.8642
▁ingersoll	-10.8642
▁injunction	-10.8642
▁jurors	-10.8642
▁renaissance	-10.8642
▁sacramento	-10.8642
▁equities	-10.8642
▁coalition	-10.8642
▁reliance	-10.8642
▁robust	-10.8642
▁trump	-10.8642
▁conversion	-10.8642
▁katz	-10.8642
▁treasurer	-10.8642
▁spinoff	-10.8642
▁desperate	-10.8642
▁province	-10.8643
▁completion	-10.8643
▁bearish	-10.8643
▁angry	-10.8644
cent	-10.8644
▁hudson	-10.8644
▁honda	-10.8644
▁foster	-10.8645
▁fat	-10.8645
▁salary	-10.8645
▁cleanup	-10.8645
▁extension	-10.8648
▁photo	-10.8649
▁viewers	-10.8651
▁incident	-10.8652
▁feb	-10.8654
▁lotus	-10.8655
▁skills	-10.8656
▁anyway	-10.8657
▁panic	-10.8658
▁marketer	-10.866
▁bias	-10.8662
▁wars	-10.8662
▁streamlin	-10.8665
▁clearing	-10.8676
▁installed	-10.8684
▁fiber	-10.8702
▁troops	-10.8703
▁su	-10.8706
▁goodson	-10.8714
▁weakening	-10.8715
▁mandat	-10.8719
▁components	-10.8721
ichi	-10.8731
ligible	-10.8734
▁commute	-10.8741
▁versions	-10.8749
▁notion	-10.8765
▁rid	-10.8766
▁born	-10.8767
50	-10.8767
lity	-10.8768
▁tool	-10.877
ca	-10.8773
vast	-10.8775
▁happening	-10.8777
▁wind	-10.8783
▁upward	-10.8785
are	-10.8787
▁tho	-10.8795
▁user	-10.8804
ury	-10.8807
merged	-10.8823
▁suppliers	-10.8823
▁swed	-10.8829
street	-10.8839
▁marin	-10.8839
dollar	-10.8841
aware	-10.8845
▁hits	-10.8857
fill	-10.8864
▁rese	-10.8864
▁finds	-10.8868
▁baskets	-10.8874
▁ac	-10.8891
services	-10.8892
▁counter	-10.8894
▁financed	-10.8895
fe	-10.8904
▁practical	-10.891
▁bates	-10.8934
▁licenses	-10.8938
▁sub	-10.8951
▁prepar	-10.8962
yse	-10.8969
▁horse	-10.8977
▁tourist	-10.898
▁usa	-10.898
▁execution	-10.8981
ash	-10.8984
▁setback	-10.8985
▁teacher	-10.8986
0-	-10.8987
▁publication	-10.8988
▁strategist	-10.8992
▁publishers	-10.8993
rud	-10.8995
tributed	-10.8999
op	-10.9001
▁fare	-10.9008
▁roads	-10.901
▁promotions	-10.9011
▁sp	-10.9017
▁experienc	-10.9017
▁ounces	-10.902
▁necessar	-10.9022
▁kid	-10.9043
▁borrow	-10.9046
ys	-10.9047
probe	-10.905
▁relationships	-10.9057
▁counts	-10.9057
istic	-10.9064
▁assist	-10.9064
▁boss	-10.9067
▁announc	-10.9067
▁attacks	-10.9081
▁victor	-10.9082
▁destroy	-10.9105
3	-10.9106
▁hi	-10.9107
▁agricultur	-10.9113
▁lend	-10.9116
▁pin	-10.912
▁speculate	-10.9124
▁multi	-10.9142
▁concessions	-10.9142
▁discretion	-10.9142
▁discrimination	-10.9142
▁efficiency	-10.9142
▁empire	-10.9142
▁fierce	-10.9142
▁intellectual	-10.9142
▁liabilities	-10.9142
▁mississippi	-10.9142
▁nabisco	-10.9142
▁netherlands	-10.9142
▁sullivan	-10.9142
▁vulnerable	-10.9142
▁wisconsin	-10.9142
▁communities	-10.9142
▁formula	-10.9142
▁museum	-10.9142
▁utah	-10.9142
▁semel	-10.9142
▁wedtech	-10.9142
▁warsaw	-10.9142
▁calculations	-10.9142
▁louisville	-10.9142
▁medium	-10.9142
▁connaught	-10.9142
▁chunk	-10.9142
▁bullish	-10.9142
▁geneva	-10.9142
▁swift	-10.9143
▁athletic	-10.9143
▁stolen	-10.9143
▁disney	-10.9143
▁rejection	-10.9143
▁entry	-10.9144
responsibilities	-10.9144
▁honor	-10.9144
▁jackson	-10.9145
▁maturing	-10.9145
▁truth	-10.9145
▁healthcare	-10.9149
▁staffers	-10.915
▁seller	-10.915
▁print	-10.915
▁bonuses	-10.915
fusion	-10.915
▁tvs	-10.915
▁encouraging	-10.9153
sui	-10.9154
▁demonstrate	-10.9155
▁homeless	-10.9156
solut	-10.9158
▁carefully	-10.9161
▁creation	-10.9162
rative	-10.9162
▁luc	-10.9162
▁barre	-10.9171
▁congressman	-10.9181
▁wash	-10.9184
bert	-10.9184
▁investigators	-10.9198
▁expenditures	-10.9198
▁williams	-10.9209
ending	-10.9209
▁wheat	-10.9211
▁bases	-10.9213
▁merit	-10.9215
▁rig	-10.9227
▁incest	-10.9227
▁regarded	-10.923
▁globe	-10.924
▁explained	-10.924
wich	-10.924
▁belong	-10.9242
▁explor	-10.9246
▁steal	-10.9248
▁packaged	-10.9256
▁sport	-10.9256
▁tone	-10.9257
▁fortune	-10.9259
▁dominan	-10.9267
▁jay	-10.9269
▁corner	-10.9274
▁probe	-10.9296
▁tva	-10.9297
▁animals	-10.93
▁tourists	-10.9307
▁joe	-10.9331
ss	-10.9331
▁catastrophe	-10.9343
ric	-10.9349
▁regain	-10.9354
heft	-10.9358
▁minute	-10.9361
drive	-10.9363
▁resorts	-10.9365
ell	-10.937
ered	-10.938
▁walls	-10.9391
▁arguments	-10.941
oft	-10.9413
▁stance	-10.9426
rn	-10.9426
▁score	-10.9439
▁bargain	-10.9441
▁convinc	-10.9451
▁mor	-10.9462
▁ministers	-10.947
▁rely	-10.9473
▁bass	-10.948
fore	-10.9487
▁promot	-10.9489
▁propose	-10.9491
▁dream	-10.9501
▁conflict	-10.9503
▁passenger	-10.9504
▁thousand	-10.9504
▁victim	-10.9505
▁animal	-10.9505
▁application	-10.9505
▁brother	-10.9507
▁sand	-10.9519
ations	-10.9519
rolled	-10.952
▁employer	-10.9528
october	-10.9529
▁dun	-10.9531
lph	-10.9534
▁rent	-10.9544
▁kinds	-10.9549
▁refin	-10.9553
▁rebuild	-10.9571
▁swell	-10.9572
▁exempt	-10.9579
▁advanc	-10.9585
▁grounds	-10.9588
referred	-10.9602
exempt	-10.9602
ela	-10.9605
▁underwrit	-10.9623
▁logic	-10.9623
▁don	-10.9624
▁ends	-10.9629
▁abandon	-10.9632
▁decid	-10.964
▁surface	-10.9644
▁reverse	-10.9644
▁ignore	-10.9644
▁reporter	-10.9646
▁era	-10.9648
▁budgets	-10.9652
quality	-10.9656
▁bonus	-10.9661
▁albert	-10.9662
sector	-10.9663
▁colon	-10.9663
raig	-10.9668
-2	-10.9668
▁achenbaum	-10.9668
▁ambitious	-10.9668
▁basketball	-10.9668
▁categories	-10.9668
▁comptroller	-10.9668
▁explanation	-10.9668
▁ignoring	-10.9668
▁lorenzo	-10.9668
▁maidenform	-10.9668
▁merieux	-10.9668
▁pregnant	-10.9668
▁rubicam	-10.9668
▁vigorous	-10.9668
▁hdtv	-10.9668
▁ozone	-10.9668
▁seagram	-10.9668
▁solidarity	-10.9668
▁unprecedented	-10.9668
▁clothing	-10.9668
▁lockheed	-10.9668
▁superior	-10.9668
▁intervention	-10.9668
▁brooklyn	-10.9668
▁coleman	-10.9668
▁examination	-10.9668
▁shipyard	-10.9669
▁visible	-10.9669
▁12-	-10.9669
▁emotional	-10.9669
▁lunch	-10.9669
▁revco	-10.9669
▁ldp	-10.967
▁momentum	-10.9671
▁storm	-10.9671
▁richmond	-10.9671
▁striking	-10.9671
▁draft	-10.9673
▁computing	-10.9673
▁serv	-10.9674
▁comedy	-10.9675
▁bright	-10.9676
▁improving	-10.9678
▁anywhere	-10.9678
▁crew	-10.9681
▁gift	-10.9681
▁kansas	-10.9682
▁arrived	-10.9682
▁spa	-10.9682
▁unclear	-10.9685
▁strongest	-10.9686
▁psychology	-10.9687
▁lots	-10.9689
▁arranged	-10.9691
▁useful	-10.9695
▁calculate	-10.9695
▁floating	-10.9695
▁colony	-10.97
▁spin	-10.9704
▁slate	-10.9709
signed	-10.9715
▁violated	-10.9716
▁lifted	-10.9721
▁hy	-10.9722
▁upham	-10.9724
▁restored	-10.9725
▁fan	-10.9731
minent	-10.9734
▁halted	-10.9735
▁removed	-10.9738
▁capitalist	-10.9741
▁adults	-10.9745
▁bever	-10.975
deau	-10.9753
▁debts	-10.976
▁cite	-10.9763
▁visited	-10.9766
▁tru	-10.9767
▁franchisees	-10.977
▁merk	-10.9771
▁routes	-10.9772
▁ti	-10.9781
▁tanks	-10.9782
▁broadly	-10.979
▁deserve	-10.979
▁award	-10.9791
▁nice	-10.9811
cumulati	-10.9814
ntex	-10.9816
▁columns	-10.9816
▁protests	-10.9826
▁die	-10.9832
▁feared	-10.9838
▁ka	-10.9839
▁hint	-10.9854
rowe	-10.9857
▁windows	-10.9861
rican	-10.9885
▁beef	-10.9899
▁quit	-10.9907
▁stee	-10.9908
po	-10.9922
▁advers	-10.9929
▁landing	-10.9965
▁eat	-10.997
ba	-10.9979
▁pays	-10.9983
▁engines	-10.999
▁articles	-11.0004
itte	-11.0017
itting	-11.0019
icated	-11.0025
▁alto	-11.0029
▁mission	-11.0036
▁gardens	-11.004
▁physic	-11.005
▁neighbor	-11.0054
▁backlog	-11.0056
▁method	-11.006
▁cigarette	-11.006
▁protest	-11.0061
mina	-11.0062
▁contribution	-11.0065
▁patient	-11.0073
rolling	-11.0088
john	-11.0089
oody	-11.0107
▁waive	-11.0114
▁evening	-11.0118
▁ex	-11.0121
ticipation	-11.0122
▁eli	-11.013
▁specializ	-11.0136
▁creditor	-11.0142
▁challenges	-11.0147
ork	-11.0153
▁diver	-11.0158
▁researcher	-11.016
▁balloon	-11.0166
▁scrambl	-11.0171
ssive	-11.0179
▁withdraw	-11.0183
▁tracks	-11.0187
interest	-11.0188
▁arrest	-11.0188
nomination	-11.0191
▁univers	-11.0192
ural	-11.0192
▁se	-11.0197
▁wealth	-11.0205
▁proper	-11.0209
▁liquid	-11.0222
▁submit	-11.0222
▁jewel	-11.0223
▁chevrolet	-11.0224
▁kabul	-11.0224
▁kentucky	-11.0224
▁liquor	-11.0224
▁maturities	-11.0224
▁mortality	-11.0224
▁parallel	-11.0224
▁reebok	-11.0224
▁reynolds	-11.0224
gramm	-11.0224
▁cyclical	-11.0224
▁mechani	-11.0224
▁tourism	-11.0224
▁delicious	-11.0224
▁belief	-11.0224
▁eurocom	-11.0224
▁garcia	-11.0224
▁presidency	-11.0224
▁satisfaction	-11.0224
▁supercomputer	-11.0224
▁shield	-11.0224
▁diego	-11.0224
▁transition	-11.0224
▁desert	-11.0224
▁confusion	-11.0224
▁guilders	-11.0224
▁keating	-11.0224
▁accurate	-11.0225
▁female	-11.0225
▁wathen	-11.0225
▁summit	-11.0225
▁opposite	-11.0226
▁bondholders	-11.0227
▁establishment	-11.0227
▁finland	-11.0227
▁disruption	-11.0227
▁jerry	-11.0227
▁rouge	-11.0227
▁restated	-11.0227
▁skeptical	-11.0228
▁clause	-11.0228
▁meantime	-11.0229
▁agenda	-11.0229
▁painful	-11.0229
▁surgery	-11.023
▁defined	-11.023
▁connected	-11.0231
▁repay	-11.0231
▁pork	-11.0234
achi	-11.0235
▁improper	-11.0235
▁debut	-11.0236
▁participating	-11.0238
▁siz	-11.0245
▁ignored	-11.0249
▁content	-11.025
▁idle	-11.025
▁shrink	-11.025
▁hotels	-11.0251
▁wors	-11.0251
▁lobbying	-11.0256
▁executed	-11.0259
▁milan	-11.0259
▁deeply	-11.0262
fide	-11.0267
▁fault	-11.0278
▁adjusters	-11.0279
▁hbo	-11.028
▁mather	-11.0285
▁granted	-11.0288
▁mack	-11.0291
▁rebounded	-11.0292
▁advances	-11.0294
▁ben	-11.0296
contra	-11.0301
tic	-11.0303
▁bus	-11.0303
sky	-11.0305
▁drivers	-11.0313
▁fled	-11.0324
▁objectives	-11.0324
▁emerged	-11.0326
rray	-11.0327
▁sdi	-11.0333
▁suggestions	-11.0334
▁bra	-11.0335
un	-11.034
▁properly	-11.0344
▁pledge	-11.0369
▁tuc	-11.0373
tings	-11.038
▁interviewed	-11.0407
ld	-11.0408
▁suffering	-11.0409
▁ranks	-11.0413
▁roe	-11.0414
▁devote	-11.0436
tti	-11.0439
sence	-11.0444
▁successfully	-11.0447
▁toky	-11.0456
▁definition	-11.0463
▁tickets	-11.0466
▁sk	-11.0477
rman	-11.0486
▁gla	-11.0486
lumin	-11.0486
▁owning	-11.0491
▁tre	-11.0495
▁determin	-11.0499
▁donat	-11.0501
icon	-11.0504
curred	-11.0515
▁displays	-11.0516
▁strikes	-11.0516
▁links	-11.0516
derick	-11.052
eadily	-11.0524
▁cambri	-11.0533
▁covert	-11.0536
▁wary	-11.0541
▁afr	-11.0555
packa	-11.0557
▁merchants	-11.0558
▁song	-11.0564
▁facts	-11.057
▁expos	-11.0574
▁proceed	-11.0586
▁maine	-11.0598
owed	-11.0601
▁shock	-11.0602
▁disciplin	-11.0604
arily	-11.0614
▁perception	-11.0647
▁affair	-11.0648
▁spirit	-11.0649
▁column	-11.0649
▁assurance	-11.065
▁rider	-11.0655
▁discussion	-11.0658
ist	-11.0664
▁topic	-11.0665
▁communication	-11.0669
▁refus	-11.0677
▁lab	-11.0681
▁cl	-11.0689
▁lately	-11.0694
loan	-11.0707
▁boards	-11.0718
ative	-11.0742
▁wire	-11.075
▁leas	-11.0754
▁rosen	-11.0754
▁govern	-11.0761
▁campaigns	-11.0761
sche	-11.077
-1	-11.0771
▁redeem	-11.0775
los	-11.0778
▁societ	-11.078
▁predicts	-11.0784
▁decrease	-11.0787
▁negotiate	-11.0791
▁seize	-11.0792
▁historical	-11.0794
zed	-11.0807
▁witness	-11.0807
held	-11.0808
▁smoke	-11.081
plex	-11.0811
rushed	-11.0811
▁enforce	-11.0811
▁simultaneous	-11.0812
▁alcohol	-11.0812
▁apartheid	-11.0812
▁furniture	-11.0812
▁glasnost	-11.0812
▁madison	-11.0812
▁minpeco	-11.0812
▁privatization	-11.0812
▁qualify	-11.0812
▁salaries	-11.0812
▁script	-11.0812
▁stockholm	-11.0812
▁vaccine	-11.0812
▁volokh	-11.0812
▁edelman	-11.0812
▁arkansas	-11.0812
▁falcon	-11.0812
▁ocean	-11.0812
▁beneficial	-11.0812
▁wrongdoing	-11.0812
▁violence	-11.0812
▁emissions	-11.0812
▁montreal	-11.0812
▁copyright	-11.0812
▁champion	-11.0812
▁payroll	-11.0812
▁harvest	-11.0812
▁denver	-11.0812
▁combat	-11.0813
▁dingell	-11.0813
▁libor	-11.0813
▁bugs	-11.0813
▁eurodollar	-11.0813
▁occasionally	-11.0813
▁altogether	-11.0813
▁protesters	-11.0813
▁physician	-11.0814
▁popularity	-11.0814
▁clearance	-11.0814
▁mexic	-11.0814
▁stuck	-11.0814
▁regardless	-11.0814
▁consolidation	-11.0814
▁latter	-11.0814
▁excessive	-11.0815
unconstitutional	-11.0815
▁shelter	-11.0816
▁oregon	-11.0817
▁pursui	-11.0817
▁interim	-11.0818
▁salespeople	-11.0821
brid	-11.0821
▁publicity	-11.0821
▁atmosphere	-11.0822
▁overcome	-11.0823
▁commod	-11.0825
vard	-11.0826
▁singer	-11.0827
▁bureaucrat	-11.0828
gged	-11.0833
▁gathering	-11.0835
▁tougher	-11.0835
▁sparked	-11.084
▁soaring	-11.0844
▁enacted	-11.0846
▁kick	-11.0856
▁alter	-11.086
▁wider	-11.0866
▁transform	-11.0868
▁films	-11.0872
▁printer	-11.0875
▁losers	-11.0883
drawn	-11.0886
ze	-11.0902
ptical	-11.0903
▁apiece	-11.0904
▁anderson	-11.0906
▁legitima	-11.0908
▁winners	-11.0939
▁acc	-11.0946
▁investigations	-11.0946
▁tendered	-11.0947
▁functions	-11.0949
▁alive	-11.0955
nad	-11.0956
▁recommendations	-11.0959
▁cie	-11.0963
▁nato	-11.0965
peters	-11.0974
▁translate	-11.0979
lson	-11.0981
▁propos	-11.0985
▁yes	-11.0994
▁passengers	-11.0999
ill	-11.1012
▁lay	-11.1013
▁reuter	-11.1021
get	-11.1024
▁reg	-11.1027
unny	-11.1037
icop	-11.1056
▁diseases	-11.1079
▁discounts	-11.108
▁agreeing	-11.1088
▁tro	-11.1105
▁insiders	-11.1106
▁sat	-11.1107
▁attempted	-11.1113
▁bet	-11.1141
line	-11.1152
long	-11.1161
▁fundamentals	-11.117
folk	-11.1173
▁guys	-11.1177
▁writers	-11.118
strong	-11.1183
▁13	-11.1184
ability	-11.1194
▁defaults	-11.1202
bro	-11.121
▁fares	-11.1214
than	-11.1221
ig	-11.1225
▁tries	-11.1226
▁obligations	-11.123
▁drink	-11.1233
▁recall	-11.1237
▁stages	-11.1253
▁gau	-11.1255
▁conclusion	-11.1265
▁assassination	-11.1268
▁raider	-11.127
▁disappointment	-11.1271
▁diamond	-11.1271
▁enterprise	-11.1273
▁preference	-11.1273
▁barrier	-11.1274
cut	-11.1283
etic	-11.1287
▁spurr	-11.1289
▁movements	-11.1291
▁scientist	-11.1295
▁lbo	-11.1296
ew	-11.1299
limina	-11.13
▁20	-11.1326
fend	-11.1337
▁saving	-11.1346
▁argu	-11.1383
▁carpet	-11.1386
▁enact	-11.1402
▁spoke	-11.1407
ewis	-11.141
▁band	-11.1417
▁drawing	-11.1418
▁anth	-11.1422
▁careful	-11.1423
▁cuba	-11.1424
▁shake	-11.1425
▁listen	-11.1426
▁automatic	-11.1436
mmun	-11.1437
▁anheuser	-11.1437
▁anxiety	-11.1437
▁beneficiaries	-11.1437
▁bourbon	-11.1437
▁catalog	-11.1437
▁chandler	-11.1437
▁dialogue	-11.1437
▁diminished	-11.1437
▁episode	-11.1437
▁filipino	-11.1437
▁grenfell	-11.1437
▁microprocessor	-11.1437
▁minnesota	-11.1437
▁monopol	-11.1437
▁oklahoma	-11.1437
▁phenomenon	-11.1437
▁temblor	-11.1437
▁zurich	-11.1437
▁bureaucracy	-11.1437
▁fruit	-11.1437
▁orleans	-11.1437
▁influential	-11.1437
▁ethics	-11.1437
▁boesky	-11.1437
▁girl	-11.1437
▁integration	-11.1437
▁suisse	-11.1437
▁crunch	-11.1437
▁sleep	-11.1437
▁misleading	-11.1437
▁receivables	-11.1437
▁attendants	-11.1437
▁azoff	-11.1437
▁radiation	-11.1437
▁understood	-11.1437
▁issuance	-11.1437
▁quantities	-11.1437
▁expertise	-11.1437
▁deterioration	-11.1437
▁quotron	-11.1437
mediate	-11.1438
▁interpublic	-11.1438
▁dinner	-11.1438
▁seattle	-11.1438
▁blank	-11.1438
▁pipe	-11.1438
▁reminde	-11.1439
▁manila	-11.1439
▁tumor	-11.1439
▁evaluation	-11.1439
▁bancorp	-11.144
▁settling	-11.144
▁overhead	-11.144
▁minimal	-11.144
▁cheating	-11.1441
▁dataproducts	-11.1441
▁yale	-11.1442
▁survival	-11.1442
▁cargo	-11.1443
▁steam	-11.1443
▁specify	-11.1443
▁cease	-11.1443
▁diversify	-11.1444
▁observed	-11.1446
▁witnesses	-11.1446
▁architecture	-11.1448
▁thereafter	-11.1449
▁heading	-11.145
▁burst	-11.1452
▁taxation	-11.1452
▁preserve	-11.1454
▁anymore	-11.1462
▁historically	-11.1464
▁robertson	-11.1464
▁dark	-11.1469
▁restructured	-11.1472
▁nsc	-11.1475
▁keen	-11.1475
▁sick	-11.1478
▁arrested	-11.1478
▁warming	-11.1488
▁peterson	-11.1489
▁blocks	-11.1497
▁sooner	-11.1497
▁contended	-11.15
▁instant	-11.1505
▁illegally	-11.1505
▁drinking	-11.1505
▁journalists	-11.1508
▁transplants	-11.1508
▁pcs	-11.1513
roche	-11.1514
▁bears	-11.1515
▁actor	-11.1515
commod	-11.1516
▁cup	-11.152
▁wat	-11.1542
▁businessman	-11.1544
▁stunn	-11.1545
ony	-11.1548
▁gates	-11.1559
▁counterparts	-11.1562
▁wi	-11.1562
lone	-11.1566
▁couples	-11.1567
▁earning	-11.1585
▁pall	-11.1586
▁naturally	-11.1609
▁counted	-11.1609
tium	-11.1613
▁methods	-11.1626
▁cab	-11.1632
oral	-11.1645
ck	-11.1648
▁concentrat	-11.1656
hill	-11.1663
▁neighborhoods	-11.168
▁cope	-11.1684
ling	-11.1685
▁1	-11.1688
▁scor	-11.1692
▁replac	-11.1713
▁dam	-11.1713
▁kra	-11.1715
▁weis	-11.1722
▁techniques	-11.1722
io	-11.1725
▁owe	-11.1747
▁ira	-11.1757
▁border	-11.1761
▁nfl	-11.1762
regulation	-11.1767
▁invit	-11.177
▁picke	-11.1771
ax	-11.1774
eep	-11.1775
▁designs	-11.1776
▁arrangements	-11.1776
▁pc	-11.1798
million	-11.1804
abin	-11.1812
▁authors	-11.1813
▁tenn	-11.1815
ez	-11.1822
motive	-11.1829
bridge	-11.1832
that	-11.1836
▁catastroph	-11.184
com	-11.1843
seni	-11.1847
▁crops	-11.1848
▁trim	-11.1848
callable	-11.1866
▁regions	-11.1868
▁solve	-11.187
▁pol	-11.1882
ailing	-11.1896
dicted	-11.1912
dor	-11.1913
▁choices	-11.1924
▁patents	-11.1934
▁shar	-11.1936
▁missile	-11.1939
▁philippine	-11.194
▁recommendation	-11.194
▁defendant	-11.194
▁error	-11.1945
▁requirement	-11.1948
▁indicator	-11.1953
▁bidder	-11.1954
▁aspect	-11.1958
▁relie	-11.1961
▁procedure	-11.1964
▁reader	-11.1971
▁mental	-11.1977
▁woo	-11.198
▁stra	-11.199
▁suitor	-11.1991
▁leg	-11.2006
▁mag	-11.2007
▁signals	-11.2011
put	-11.2018
▁chi	-11.202
web	-11.2023
▁communists	-11.2037
▁treasurys	-11.2049
▁flood	-11.2068
▁defeat	-11.2069
▁disagree	-11.2077
▁cultur	-11.2078
▁slip	-11.2079
▁perfect	-11.208
▁consistent	-11.2083
▁cancel	-11.2085
▁moderniz	-11.2088
▁warm	-11.2101
▁photograph	-11.2102
-486	-11.2104
▁accomplish	-11.2104
▁agnelli	-11.2104
▁battery	-11.2104
▁bogart	-11.2104
▁cabinet	-11.2104
▁charlotte	-11.2104
▁convenience	-11.2104
▁hawaii	-11.2104
▁helmsley	-11.2104
▁indianapolis	-11.2104
▁inquiries	-11.2104
▁mancuso	-11.2104
▁perestroika	-11.2104
▁persistent	-11.2104
▁philosophy	-11.2104
▁platinum	-11.2104
▁scrutiny	-11.2104
▁anxious	-11.2104
▁inspector	-11.2104
▁universities	-11.2104
▁infected	-11.2104
▁outcry	-11.2104
▁delegation	-11.2104
▁andersson	-11.2104
▁confrontation	-11.2104
▁imminent	-11.2104
cular	-11.2104
▁columnist	-11.2104
▁shadow	-11.2104
▁ratners	-11.2104
▁glenn	-11.2104
▁guess	-11.2104
▁corruption	-11.2104
▁existence	-11.2104
▁virus	-11.2105
▁talent	-11.2105
▁whitten	-11.2105
▁shippers	-11.2106
▁saks	-11.2106
▁breach	-11.2106
▁ghost	-11.2106
▁automatically	-11.2106
▁justify	-11.2106
▁taste	-11.2106
▁outlays	-11.2107
▁incorrect	-11.2107
▁wellington	-11.2108
▁contel	-11.2109
▁sugarman	-11.2109
▁passage	-11.2109
▁northwest	-11.211
ibb	-11.2111
▁withdrew	-11.2112
▁pride	-11.2112
▁azt	-11.2113
▁fastest	-11.2113
▁unrelated	-11.2114
▁portray	-11.2114
▁gradually	-11.2114
▁squ	-11.2115
mbass	-11.2117
▁asserted	-11.2117
▁fines	-11.212
▁drought	-11.212
▁boyd	-11.2122
ponents	-11.2124
▁flows	-11.2125
▁command	-11.2125
▁applica	-11.2126
▁detect	-11.2127
▁perfectly	-11.2127
▁jolt	-11.2128
preciation	-11.213
sident	-11.2131
▁rational	-11.2134
▁strain	-11.2134
iba	-11.2138
▁leap	-11.2138
llate	-11.2138
elle	-11.2145
fed	-11.2147
▁downgrade	-11.2148
▁seized	-11.2149
▁apples	-11.2149
▁negotiators	-11.2156
ip	-11.2156
▁expired	-11.2158
▁gol	-11.2171
▁municipals	-11.2171
cc	-11.2179
▁satisfy	-11.2187
▁trees	-11.219
ppon	-11.2193
▁chose	-11.2196
▁backer	-11.2197
▁demonstrations	-11.2203
▁lock	-11.2209
▁provi	-11.2212
ocal	-11.2219
izz	-11.2222
▁proteins	-11.2222
▁rubles	-11.2224
▁fate	-11.223
▁booming	-11.2239
▁spy	-11.2242
▁tariffs	-11.2249
▁soybeans	-11.2249
▁hopeful	-11.2251
going	-11.2254
▁errors	-11.2269
heating	-11.2276
▁cana	-11.2281
kins	-11.2281
▁max	-11.2289
▁tip	-11.2291
▁assurances	-11.2293
▁ima	-11.2295
▁dependent	-11.2296
ories	-11.2301
no	-11.2304
▁writes	-11.2306
▁listing	-11.2307
abortion	-11.2308
▁passing	-11.2314
▁leon	-11.232
ville	-11.2327
▁periods	-11.2332
▁avoided	-11.234
▁structured	-11.2342
▁seeds	-11.2343
arbitrage	-11.2346
▁ke	-11.2347
uick	-11.2354
taking	-11.2355
wis	-11.2355
▁cat	-11.2357
nie	-11.2357
▁pills	-11.2357
tends	-11.2363
▁grows	-11.2376
▁prim	-11.2384
▁indexes	-11.2391
▁stevens	-11.2392
form	-11.2396
▁god	-11.2401
▁personally	-11.2415
▁sheets	-11.2428
olog	-11.2434
▁hang	-11.2442
adjusted	-11.2445
▁gera	-11.2448
▁repairs	-11.2455
▁tradition	-11.2458
▁islands	-11.2459
▁boy	-11.2463
scribe	-11.2468
cutting	-11.2477
▁mids	-11.248
▁sites	-11.2489
▁furs	-11.25
claim	-11.2505
definition	-11.2516
▁wins	-11.2517
▁accelerat	-11.2526
erra	-11.2547
▁sum	-11.2552
▁quant	-11.2565
violent	-11.2577
▁households	-11.2581
ica	-11.2592
sen	-11.2596
▁tri	-11.2603
▁doors	-11.2622
▁reward	-11.264
press	-11.2641
▁oh	-11.2641
▁inform	-11.2645
▁affidavit	-11.265
▁circle	-11.2652
▁tasks	-11.2652
▁hazard	-11.2652
▁prosecution	-11.2653
▁document	-11.2653
▁function	-11.2654
▁statute	-11.2656
▁administrator	-11.2657
▁devise	-11.2663
▁lived	-11.2689
ome	-11.2689
▁reit	-11.2696
▁discourag	-11.2701
▁nich	-11.2706
awa	-11.2709
trial	-11.271
▁hug	-11.2746
mended	-11.277
wa	-11.2773
range	-11.2782
▁ba	-11.2792
▁frequent	-11.2795
kin	-11.2796
▁tim	-11.2804
▁issu	-11.2813
▁banxquote	-11.2818
▁destruction	-11.2818
▁dictator	-11.2818
▁disobedience	-11.2818
▁elizabeth	-11.2818
▁excellent	-11.2818
▁fitzwater	-11.2818
▁flexible	-11.2818
▁forfeiture	-11.2818
▁gambling	-11.2818
▁jewish	-11.2818
▁mcduffie	-11.2818
▁ourselves	-11.2818
▁pepsi	-11.2818
▁politburo	-11.2818
▁predecessor	-11.2818
▁pregnancy	-11.2818
▁symptoms	-11.2818
▁taipei	-11.2818
▁sydney	-11.2818
▁tuition	-11.2818
▁embassy	-11.2818
▁fernand	-11.2818
▁territory	-11.2818
▁snapped	-11.2818
▁insulin	-11.2818
▁clothes	-11.2818
▁priorities	-11.2818
▁recreation	-11.2818
▁vendor	-11.2818
▁supervision	-11.2818
▁tenure	-11.2818
▁regret	-11.2818
▁hypo	-11.2818
▁homeowners	-11.2818
▁entities	-11.2818
▁creek	-11.2818
▁punish	-11.2818
▁roderick	-11.2819
▁interpretation	-11.2819
▁whittle	-11.2819
▁retiring	-11.2819
burgh	-11.2819
▁evident	-11.282
▁federated	-11.282
rox	-11.282
▁execute	-11.282
▁laff	-11.282
▁inadequate	-11.2821
▁mtm	-11.2821
▁mcg	-11.2822
▁judiciary	-11.2822
▁funny	-11.2823
▁unspecified	-11.2824
▁buffet	-11.2824
▁socialism	-11.2827
▁drain	-11.2828
▁stoll	-11.2829
▁wilson	-11.2829
▁deeper	-11.283
▁norton	-11.2831
▁postponed	-11.2837
▁stalled	-11.284
▁scared	-11.2842
▁acceptable	-11.2842
▁lucky	-11.2842
▁alleges	-11.2843
uine	-11.2846
▁surfaced	-11.2851
▁inches	-11.2856
hills	-11.2863
▁hamp	-11.2865
attered	-11.2869
▁appearance	-11.2872
▁instructions	-11.2873
▁withdrawn	-11.2875
arry	-11.2879
org	-11.2882
cost	-11.2884
era	-11.2886
▁minerals	-11.2886
▁sidelines	-11.2888
▁nam	-11.2889
▁trimm	-11.2892
▁crowded	-11.2896
ception	-11.291
▁buck	-11.2917
iel	-11.2917
▁growers	-11.2926
ubic	-11.2929
▁disputes	-11.293
▁illu	-11.2936
▁carb	-11.2942
▁dogs	-11.2946
▁deductions	-11.2948
▁tea	-11.2948
▁warns	-11.2952
▁wil	-11.2954
▁soup	-11.2956
▁dragg	-11.2962
▁flaw	-11.2965
▁nig	-11.2967
vis	-11.2967
▁doubl	-11.2968
▁issuers	-11.2981
▁tour	-11.2987
▁breaks	-11.2997
▁slipping	-11.2999
ner	-11.3
▁quotas	-11.3034
▁spur	-11.3044
ander	-11.3047
▁hole	-11.3047
stol	-11.3049
lure	-11.3049
▁mer	-11.3054
▁lowe	-11.3077
▁indexing	-11.3083
▁interviews	-11.3088
ap	-11.3111
▁appealed	-11.3119
ru	-11.3121
▁patterns	-11.3133
canada	-11.3137
▁artists	-11.3141
▁recogniz	-11.3156
ech	-11.3157
▁br	-11.3159
array	-11.3163
▁mounted	-11.3189
▁gear	-11.3199
▁bur	-11.3207
lin	-11.3217
▁dated	-11.3223
▁beta	-11.3247
cine	-11.3259
▁quota	-11.3261
nal	-11.327
▁rice	-11.3279
ugai	-11.3284
▁dress	-11.3285
▁restor	-11.3286
ase	-11.3287
▁jon	-11.3293
ise	-11.3297
▁edt	-11.3308
mill	-11.3313
▁eating	-11.3358
▁tank	-11.3361
town	-11.3365
▁subjects	-11.338
dden	-11.3382
▁reactions	-11.3383
xe	-11.3388
▁jeffer	-11.3395
▁conclude	-11.3397
▁frustrat	-11.3399
ride	-11.3399
▁spots	-11.3402
▁background	-11.3414
▁privilege	-11.3416
▁supermarket	-11.3417
▁hispanic	-11.3418
▁cooperative	-11.3421
▁daughter	-11.3421
▁soybean	-11.3422
▁tariff	-11.3422
▁statistic	-11.3424
▁element	-11.3424
▁farms	-11.3426
▁duck	-11.3429
▁publishe	-11.3432
▁winner	-11.3432
▁exc	-11.3434
▁painting	-11.3435
zation	-11.3435
its	-11.3444
▁advantages	-11.3452
▁transfers	-11.3455
orn	-11.3463
building	-11.3474
▁shared	-11.3484
▁voices	-11.3498
▁fujis	-11.3504
▁generat	-11.3504
et	-11.3509
▁challeng	-11.3509
▁gate	-11.3521
▁ballot	-11.3528
▁recruit	-11.353
▁calculat	-11.355
▁reache	-11.3555
▁spark	-11.3556
▁stabilize	-11.3562
▁smooth	-11.3564
ts	-11.3564
▁tumble	-11.3564
▁drag	-11.3566
▁ranges	-11.3572
▁kohl	-11.3587
▁aftershocks	-11.3587
▁amsterdam	-11.3587
▁appliances	-11.3587
▁barbara	-11.3587
▁beautiful	-11.3587
▁caribbean	-11.3587
▁cholesterol	-11.3587
▁diabetics	-11.3587
▁discrepancies	-11.3587
▁gallery	-11.3587
▁henderson	-11.3587
▁integrity	-11.3587
▁kronor	-11.3587
▁landscape	-11.3587
▁massacre	-11.3587
▁murphy	-11.3587
▁polaroid	-11.3587
▁renault	-11.3587
▁meridian	-11.3587
▁peasant	-11.3587
▁petrie	-11.3587
▁supplement	-11.3587
▁rubber	-11.3587
▁stiff	-11.3587
▁felony	-11.3587
▁underscore	-11.3587
kicki	-11.3587
▁robot	-11.3587
▁flagship	-11.3587
▁substance	-11.3587
▁bofors	-11.3587
▁calgary	-11.3587
▁exterior	-11.3588
▁classroom	-11.3588
▁impressive	-11.3588
▁unnecessary	-11.3588
▁arabia	-11.3588
▁liquidation	-11.3588
▁valid	-11.3588
▁drama	-11.3588
▁depression	-11.3589
▁courtroom	-11.3589
▁crusade	-11.3589
▁irving	-11.3589
▁newsprint	-11.3589
▁borrowers	-11.3589
▁toxin	-11.359
▁breath	-11.359
▁teach	-11.3591
▁root	-11.3591
▁accumulat	-11.3591
▁schwar	-11.3592
▁sweden	-11.3592
▁moore	-11.3592
▁defects	-11.3592
▁capel	-11.3593
▁burger	-11.3593
▁omitted	-11.3593
▁circus	-11.3594
▁allocation	-11.3596
▁endorse	-11.3598
▁swing	-11.3599
▁offensive	-11.3599
▁tactics	-11.3599
▁builders	-11.3601
▁evaluate	-11.3601
▁alert	-11.3602
▁plate	-11.3602
▁walker	-11.3606
▁entity	-11.3608
▁alberta	-11.3609
▁notified	-11.361
▁regulated	-11.3618
▁shoes	-11.3622
▁delegate	-11.3623
▁indiana	-11.3625
fluor	-11.3626
▁viable	-11.3628
▁exclude	-11.3631
▁harm	-11.3634
▁fishing	-11.3635
▁bushel	-11.3635
▁predictions	-11.3636
▁utili	-11.3638
▁bounce	-11.3638
▁restraint	-11.364
▁salesmen	-11.3641
▁comic	-11.3645
▁printed	-11.365
▁ideal	-11.3653
▁quebec	-11.3654
▁distinct	-11.3656
▁lion	-11.3661
▁proof	-11.3662
▁memo	-11.3663
ister	-11.3665
ox	-11.3666
▁tissue	-11.3668
temporary	-11.3668
▁bron	-11.367
▁strengthened	-11.3672
▁superconductors	-11.3676
▁workstations	-11.3676
denominat	-11.3684
▁overtime	-11.3687
investment	-11.3701
▁missed	-11.3703
▁cos	-11.3712
▁relat	-11.372
native	-11.3728
▁helm	-11.3736
▁deck	-11.374
▁measur	-11.3746
▁est	-11.375
▁blam	-11.3751
▁laure	-11.3752
epa	-11.3761
systems	-11.3767
▁rewards	-11.377
ov	-11.3774
▁boys	-11.3776
▁exercised	-11.3781
▁pale	-11.3783
but	-11.3788
▁theft	-11.3803
zen	-11.3816
▁youth	-11.3818
lever	-11.3821
▁object	-11.3835
▁conflicts	-11.3836
fluent	-11.3838
ake	-11.3843
▁casting	-11.3844
▁gut	-11.3844
▁vans	-11.3845
ensus	-11.385
▁discounted	-11.3857
rys	-11.3858
▁prevented	-11.3859
▁sight	-11.387
▁lesson	-11.3871
▁springs	-11.3875
ceived	-11.3878
▁dist	-11.388
part	-11.3898
win	-11.39
▁aims	-11.3904
priced	-11.3905
▁recording	-11.3907
nl	-11.3918
arman	-11.3927
aught	-11.3927
tz	-11.393
ington	-11.3931
▁investigate	-11.3934
isch	-11.3937
orough	-11.394
▁actors	-11.3953
▁waves	-11.3959
▁deter	-11.3959
▁brun	-11.3964
▁rises	-11.3964
nd	-11.3967
▁roadway	-11.3971
▁carbon	-11.3974
▁responses	-11.3985
istration	-11.3989
▁borrowings	-11.3998
wer	-11.4008
stems	-11.4017
▁sessions	-11.4021
▁tables	-11.4024
hink	-11.4027
▁nurs	-11.4037
▁explo	-11.4045
▁payout	-11.4048
▁enabl	-11.4053
▁anger	-11.4058
▁complains	-11.4063
▁theme	-11.4063
▁gro	-11.4069
ak	-11.4101
zz	-11.4109
▁ja	-11.4124
▁invite	-11.4131
nathan	-11.4141
▁warnings	-11.4146
nvironmentalists	-11.4148
ened	-11.4161
▁sw	-11.4164
▁assure	-11.4167
▁resignations	-11.417
▁christi	-11.4176
▁audiences	-11.4182
▁fails	-11.4198
▁micros	-11.4207
tter	-11.4207
▁subsidize	-11.4207
store	-11.4208
maz	-11.4217
▁lights	-11.4231
▁realist	-11.4235
pointed	-11.4236
5	-11.4244
▁graduate	-11.4249
▁advise	-11.4252
▁sandinista	-11.4253
▁counterpart	-11.4256
▁weapon	-11.4256
▁scandals	-11.4262
▁suggestion	-11.4265
▁route	-11.4272
lled	-11.4275
▁wipe	-11.4278
▁container	-11.4286
▁amendments	-11.4302
▁highways	-11.4317
perform	-11.4329
▁inte	-11.433
▁agnos	-11.4333
▁proceeding	-11.434
oyed	-11.435
▁viol	-11.4379
▁surrender	-11.4382
▁crush	-11.4383
▁threats	-11.4384
▁procedur	-11.4385
guide	-11.4388
lf	-11.4396
▁tighten	-11.4396
stream	-11.4401
cle	-11.4406
▁historic	-11.4411
ause	-11.4413
rror	-11.4418
▁repeat	-11.4419
▁compensat	-11.442
▁afghanistan	-11.4421
▁arafat	-11.4421
▁availability	-11.4421
▁chromosome	-11.4421
▁criteria	-11.4421
▁devastating	-11.4421
▁empty	-11.4421
▁epicenter	-11.4421
▁frenzy	-11.4421
▁hollander	-11.4421
▁infrastructure	-11.4421
▁kaiser	-11.4421
▁montedison	-11.4421
▁nynex	-11.4421
▁overwhelming	-11.4421
▁peripheral	-11.4421
▁pessimistic	-11.4421
▁platform	-11.4421
▁reckless	-11.4421
▁resemble	-11.4421
▁rhetoric	-11.4421
▁stabilizing	-11.4421
▁welfare	-11.4421
▁weyerhaeuser	-11.4421
▁constituents	-11.4421
▁crazy	-11.4421
▁stewart	-11.4421
▁boasts	-11.4421
▁wisdom	-11.4421
▁demonstrators	-11.4421
▁revival	-11.4421
▁omni	-11.4421
▁texans	-11.4421
▁uncertainties	-11.4421
▁solicitation	-11.4421
▁literally	-11.4421
▁mirage	-11.4421
▁mediator	-11.4421
▁radar	-11.4421
▁belgium	-11.4421
▁embarrassment	-11.4421
rop	-11.4422
▁profile	-11.4422
hood	-11.4422
▁asserts	-11.4422
▁intact	-11.4422
▁limitations	-11.4423
▁reunification	-11.4423
▁manner	-11.4424
▁beaut	-11.4425
▁capitalism	-11.4425
▁desirable	-11.4426
▁pac	-11.4427
▁robinson	-11.4427
paid	-11.4428
garet	-11.4428
▁refugees	-11.4428
▁rental	-11.4428
▁battered	-11.4429
▁quist	-11.443
▁carol	-11.4431
▁inclined	-11.4432
▁comeback	-11.4435
▁terminated	-11.4437
▁ruth	-11.4438
▁captured	-11.4439
▁fun	-11.4441
▁justified	-11.4442
▁prepayment	-11.4442
▁liable	-11.4444
▁4	-11.4444
▁smoothly	-11.4446
wort	-11.4447
▁upheld	-11.4448
▁plot	-11.4449
▁selection	-11.4451
▁resisted	-11.4453
kem	-11.446
cial	-11.4462
li	-11.4463
▁nrm	-11.4463
▁defeated	-11.4467
mler	-11.447
▁wealthy	-11.4471
▁revived	-11.4474
▁questionable	-11.4476
▁fits	-11.4477
▁redeemed	-11.4478
▁modif	-11.4481
▁approaches	-11.4484
▁recruiting	-11.4484
▁destroyed	-11.4484
govern	-11.4485
▁severely	-11.4487
issue	-11.4488
zer	-11.4488
▁chan	-11.4488
▁teaching	-11.4491
▁intimate	-11.4492
vale	-11.4493
▁survived	-11.4495
▁coins	-11.4496
ft	-11.4506
▁proven	-11.4507
▁outsiders	-11.451
mil	-11.4512
▁shipp	-11.4518
ginni	-11.452
▁folks	-11.4524
lorin	-11.4525
▁automat	-11.4528
▁tale	-11.4528
▁guests	-11.4528
▁regularly	-11.4529
▁repaid	-11.453
nold	-11.453
▁pal	-11.4536
▁mobile	-11.4537
▁customs	-11.454
▁fish	-11.4543
▁planet	-11.4551
horn	-11.4551
▁bearing	-11.4552
▁rev	-11.4552
blast	-11.4554
▁carat	-11.4567
de	-11.4568
▁oak	-11.4568
▁obstacles	-11.4575
▁challenged	-11.4579
▁skin	-11.4579
▁guin	-11.4591
▁counseling	-11.4594
▁item	-11.4599
any	-11.4601
▁paintings	-11.4604
▁daughters	-11.4604
▁sour	-11.4606
hew	-11.4607
▁petition	-11.4611
rove	-11.4614
▁soil	-11.4615
utting	-11.4616
▁millions	-11.4618
▁prosecutions	-11.4619
▁bureaucrats	-11.4622
▁commercials	-11.4622
terior	-11.4623
▁missiles	-11.4633
minat	-11.4646
▁institutes	-11.4646
lected	-11.4651
▁subsidiz	-11.4651
tics	-11.4653
anks	-11.4658
▁deficits	-11.4664
▁beers	-11.4665
▁meat	-11.4668
ron	-11.4674
▁presum	-11.4675
▁neighbors	-11.4685
▁tack	-11.4686
▁resumed	-11.469
▁watches	-11.4691
▁surg	-11.4703
bo	-11.471
▁apartments	-11.4711
group	-11.4711
san	-11.4713
rely	-11.4735
▁appointments	-11.4737
▁demanding	-11.4746
▁scenes	-11.4746
▁na	-11.4752
lash	-11.476
▁en	-11.4765
car	-11.4768
lie	-11.4774
▁legen	-11.4784
▁pain	-11.4788
▁refunds	-11.4797
▁formation	-11.4798
▁occurs	-11.4799
rable	-11.4813
den	-11.4816
bel	-11.4818
orders	-11.4823
▁considerations	-11.4826
▁bread	-11.4829
bon	-11.4841
makers	-11.4845
▁cycles	-11.4848
▁md	-11.4851
trick	-11.4854
▁opposes	-11.4864
eal	-11.4881
vested	-11.4884
▁reviews	-11.4884
▁spe	-11.4886
agging	-11.4893
▁ful	-11.4894
▁tie	-11.4898
▁ps	-11.4901
assy	-11.491
que	-11.4925
▁eddi	-11.4933
▁oppos	-11.4937
▁earthquakes	-11.4937
mont	-11.495
▁schedules	-11.4952
anti	-11.4968
rk	-11.4968
▁declares	-11.497
▁plo	-11.4971
▁announcements	-11.4973
▁boosts	-11.4989
ns	-11.4994
cker	-11.5016
ried	-11.5037
▁lie	-11.5041
downs	-11.5047
location	-11.5063
water	-11.5073
▁hero	-11.5077
▁humans	-11.5081
▁disappear	-11.5089
▁combin	-11.5093
we	-11.5094
▁mone	-11.5095
gent	-11.5102
▁highs	-11.5106
▁injury	-11.5117
▁kan	-11.5134
▁chris	-11.5136
uz	-11.5141
▁surveys	-11.5147
dura	-11.515
▁midl	-11.5152
ccident	-11.5154
controlled	-11.5154
ppen	-11.5158
goods	-11.516
▁debenture	-11.5162
▁supervisor	-11.5162
▁obstacle	-11.5163
▁certificate	-11.5164
▁dynamic	-11.5165
▁deduction	-11.5165
▁explosion	-11.5166
buck	-11.5166
▁objective	-11.5167
▁brick	-11.517
▁protein	-11.517
▁legislator	-11.517
▁ruble	-11.5174
definitely	-11.5175
spired	-11.5176
royal	-11.5179
lent	-11.5186
▁bomb	-11.5187
▁minds	-11.5188
▁cuban	-11.519
democracy	-11.5191
uld	-11.5201
▁moments	-11.5212
used	-11.5213
▁chart	-11.5215
▁shed	-11.5215
freight	-11.5217
capital	-11.5217
▁shel	-11.522
▁retreat	-11.5232
▁possib	-11.5245
usia	-11.5254
▁plain	-11.5256
drink	-11.5259
istica	-11.5259
▁mandate	-11.5269
int	-11.527
atric	-11.5271
▁sustain	-11.5293
▁inher	-11.5296
▁psycholog	-11.5296
▁assembl	-11.5298
▁prestig	-11.53
▁complet	-11.5301
rough	-11.5303
▁alleg	-11.5303
▁releases	-11.5304
pressed	-11.5305
▁postpone	-11.5305
▁arrive	-11.5306
disclosed	-11.5319
▁regulate	-11.532
test	-11.5322
iffer	-11.5323
▁colo	-11.5324
▁deliberat	-11.5329
▁cambodia	-11.533
▁czechoslovakia	-11.533
▁emhart	-11.533
▁fluctuations	-11.533
▁fragile	-11.533
▁hiroshima	-11.533
▁innovation	-11.533
▁lexington	-11.533
▁library	-11.533
▁pockets	-11.533
▁syndrome	-11.533
▁temperatures	-11.533
▁lexus	-11.533
▁bacteria	-11.533
▁demise	-11.533
▁imagine	-11.533
▁luzon	-11.533
▁nevada	-11.533
▁vacancy	-11.533
▁gordon	-11.533
▁mystery	-11.533
▁debacle	-11.533
▁reservations	-11.533
▁therapy	-11.533
▁diversification	-11.533
▁ivory	-11.533
▁filters	-11.533
▁yellow	-11.533
▁sutton	-11.533
▁minorities	-11.533
▁clutter	-11.533
finiti	-11.533
▁salinas	-11.533
▁schwartz	-11.533
▁smart	-11.533
▁context	-11.533
▁detectors	-11.533
53	-11.533
▁scams	-11.533
▁goldsmith	-11.533
▁rallies	-11.533
▁skinner	-11.533
▁vacant	-11.533
▁accusations	-11.533
▁unsettled	-11.533
▁enthusiasm	-11.533
▁holmes	-11.533
▁amazing	-11.533
▁vacation	-11.533
▁identity	-11.533
▁ethical	-11.533
▁impression	-11.533
▁creativity	-11.533
▁exhibition	-11.533
▁rubble	-11.533
▁voluntarily	-11.533
▁myself	-11.533
▁embr	-11.5331
▁unavailable	-11.5331
▁greece	-11.5331
▁confere	-11.5331
▁cooper	-11.5331
▁herself	-11.5331
▁riskier	-11.5331
▁lagged	-11.5332
▁middlemen	-11.5332
▁breakdown	-11.5332
▁reasonably	-11.5332
▁cooperate	-11.5332
▁generous	-11.5333
▁greenberg	-11.5333
▁uncovered	-11.5333
▁fema	-11.5333
▁nikk	-11.5333
▁lagging	-11.5334
▁disposal	-11.5334
▁dismissal	-11.5335
▁cosby	-11.5335
▁bribe	-11.5335
▁chung	-11.5335
▁vila	-11.5336
▁charleston	-11.5337
▁datapoint	-11.5337
▁prospectus	-11.5337
▁pickup	-11.5338
▁choosing	-11.534
▁readily	-11.5341
▁pitts	-11.5345
▁gi	-11.5351
bart	-11.5353
▁heights	-11.5353
▁dance	-11.5353
▁industrialized	-11.5356
olated	-11.5356
▁dog	-11.5358
tary	-11.536
▁accelerate	-11.536
▁implies	-11.5364
▁niche	-11.5369
▁inco	-11.5371
llar	-11.5375
▁kent	-11.5375
▁shoot	-11.5376
▁syn	-11.5377
▁lag	-11.5377
wise	-11.5377
▁purchasers	-11.5379
erba	-11.5379
▁neck	-11.5386
▁fame	-11.5387
▁announcer	-11.5387
▁hide	-11.5388
▁sloan	-11.5391
herit	-11.5393
▁prof	-11.5397
▁penny	-11.5402
▁prohibited	-11.5403
▁vessels	-11.5403
▁tripled	-11.5405
▁vene	-11.5409
▁listening	-11.5414
aced	-11.5417
fus	-11.5417
▁tremors	-11.5418
▁scramble	-11.5419
▁attending	-11.5424
▁criminals	-11.5428
▁cautioned	-11.5429
▁samples	-11.5431
tissue	-11.5432
▁revisions	-11.5432
national	-11.5433
duce	-11.5435
▁abm	-11.5435
▁riding	-11.5435
▁boat	-11.5441
sha	-11.5441
sure	-11.5445
▁picks	-11.5449
▁installations	-11.5452
▁diet	-11.5455
numbered	-11.5462
▁ana	-11.5469
▁sol	-11.5471
mic	-11.5472
▁addressed	-11.5474
▁dave	-11.5481
sian	-11.5488
enfel	-11.5498
serves	-11.5503
▁locked	-11.551
city	-11.5513
▁upgrade	-11.5513
ustin	-11.5513
ously	-11.5525
▁images	-11.553
▁qua	-11.5531
▁cooperatives	-11.5531
▁iras	-11.5535
▁supports	-11.5536
▁chairs	-11.554
nell	-11.5543
vas	-11.5544
▁burned	-11.5552
ants	-11.5553
gest	-11.5559
▁mild	-11.556
▁concludes	-11.556
clara	-11.5564
with	-11.5565
▁capitalization	-11.557
▁hate	-11.5578
tension	-11.5578
▁dial	-11.559
parti	-11.5592
▁knowing	-11.5596
▁marc	-11.56
▁violat	-11.5605
▁voluntar	-11.5614
▁tree	-11.5616
board	-11.5619
olish	-11.5621
▁testif	-11.5626
▁intentions	-11.5634
14	-11.5637
counting	-11.5642
▁dust	-11.5645
▁marke	-11.5648
▁tires	-11.5656
▁mistakes	-11.5659
▁sink	-11.566
▁shortages	-11.5661
yers	-11.5668
bor	-11.5686
▁exclusi	-11.5699
▁grade	-11.5707
uart	-11.5734
control	-11.5757
▁pet	-11.5761
annual	-11.5768
▁maintains	-11.5797
▁feelings	-11.5797
umped	-11.581
sion	-11.5822
▁lar	-11.5824
pted	-11.584
takeover	-11.5845
▁alike	-11.5847
▁climbing	-11.5848
ollar	-11.5852
▁waters	-11.5862
hitting	-11.5864
▁messages	-11.5883
here	-11.5898
▁races	-11.5908
alyst	-11.5918
tick	-11.5921
▁prov	-11.5921
▁disks	-11.5925
tin	-11.5929
lle	-11.593
irming	-11.5933
holding	-11.5938
▁nights	-11.5944
said	-11.5945
▁lows	-11.5952
still	-11.5954
▁lean	-11.5962
ions	-11.5975
lly	-11.5976
ames	-11.5979
yard	-11.5985
lined	-11.5989
stick	-11.5992
treated	-11.5994
▁stan	-11.6006
iova	-11.6007
▁hedg	-11.602
em	-11.6025
▁generations	-11.6035
▁europeans	-11.6051
▁sal	-11.6055
billion	-11.6055
anim	-11.6061
ecker	-11.6068
light	-11.6085
stitute	-11.6093
signing	-11.6096
▁constitut	-11.6099
can	-11.6102
▁2	-11.611
▁repea	-11.6128
▁visits	-11.613
fire	-11.6146
▁harbor	-11.6164
▁taxpayer	-11.6164
▁component	-11.6164
▁citizen	-11.6165
▁emphasi	-11.6165
▁restriction	-11.6169
▁expectation	-11.6174
▁lender	-11.6178
ko	-11.6184
election	-11.619
▁ram	-11.6191
▁opinions	-11.62
▁figur	-11.6211
▁daf	-11.6212
▁recorder	-11.6213
appropriate	-11.6225
▁resign	-11.6231
▁tap	-11.6235
signal	-11.6237
relations	-11.6249
▁finances	-11.6251
▁damag	-11.6252
▁surviv	-11.6255
▁phones	-11.6269
▁introduc	-11.6272
▁franchisee	-11.6275
▁cor	-11.6275
▁nathan	-11.6275
gand	-11.6276
▁buys	-11.6277
▁neat	-11.6278
▁pat	-11.6285
▁lobby	-11.629
▁curtail	-11.6291
ould	-11.6292
▁downgrad	-11.6292
▁suspend	-11.6294
▁resist	-11.6294
▁inevitabl	-11.63
▁luck	-11.6302
▁stream	-11.6305
▁deferr	-11.6306
cycle	-11.6307
ightened	-11.6307
ons	-11.631
▁eventual	-11.6312
amic	-11.6315
▁erode	-11.6316
disk	-11.6316
▁ger	-11.6316
welcome	-11.6317
▁refuge	-11.6321
▁clar	-11.6321
guard	-11.6323
▁mo	-11.6326
▁tom	-11.6326
▁lawn	-11.6327
adium	-11.6328
▁corrupt	-11.6329
▁construct	-11.6329
▁guild	-11.6329
▁fabric	-11.6329
▁scrap	-11.633
relevant	-11.633
▁\*	-11.633
▁afghan	-11.633
▁batibot	-11.633
▁columbus	-11.633
▁devastation	-11.633
▁imbalances	-11.633
▁interfere	-11.633
▁mahfouz	-11.633
▁marathon	-11.633
▁merabank	-11.633
▁reversal	-11.633
▁rubbermaid	-11.633
▁stupid	-11.633
▁technicians	-11.633
▁verdict	-11.633
▁village	-11.633
▁innovative	-11.633
▁irresponsible	-11.633
▁louisiana	-11.633
▁mulford	-11.633
▁shapiro	-11.633
▁embryo	-11.633
▁liberty	-11.633
▁breakfast	-11.633
▁devaluation	-11.633
▁thieves	-11.633
▁separation	-11.633
▁ackerman	-11.633
▁plaza	-11.633
▁soldiers	-11.633
plough	-11.633
▁innocent	-11.633
▁confusing	-11.633
▁lauder	-11.633
▁scrapped	-11.633
▁attendance	-11.633
▁garrison	-11.633
▁lipper	-11.633
▁scarce	-11.633
▁bleak	-11.633
▁crises	-11.633
▁disarray	-11.633
▁evil	-11.633
▁illustration	-11.633
▁batman	-11.633
▁yourself	-11.633
▁journalism	-11.6331
▁please	-11.6331
▁speculative	-11.6331
▁preparation	-11.6331
▁oversight	-11.6331
▁shaky	-11.6331
▁ireland	-11.6331
▁unique	-11.6331
▁declaration	-11.6331
▁claimants	-11.6331
▁turf	-11.6331
▁confidential	-11.6332
▁possibilities	-11.6332
▁gmac	-11.6332
▁fairness	-11.6332
▁testified	-11.6332
▁glory	-11.6332
▁nasty	-11.6332
▁processors	-11.6333
▁freeze	-11.6333
▁celebration	-11.6333
▁nerves	-11.6334
▁boomers	-11.6334
▁headline	-11.6334
▁adoption	-11.6335
▁everywhere	-11.6336
▁exciting	-11.6336
precedent	-11.6337
▁parity	-11.634
▁timetable	-11.6341
▁sedan	-11.6342
lington	-11.6343
▁liquidated	-11.6345
▁tighter	-11.6346
▁unknown	-11.6346
▁indirect	-11.6347
▁winne	-11.6347
favorable	-11.6348
▁leather	-11.6349
▁heels	-11.6349
▁relieved	-11.6351
▁revamped	-11.6352
▁hardest	-11.6354
▁kean	-11.6355
ancy	-11.6355
▁roth	-11.6356
▁consumed	-11.6357
▁implemented	-11.6359
soft	-11.636
mes	-11.6362
▁gainers	-11.6363
▁deteriorating	-11.6364
hamb	-11.6365
▁walt	-11.6367
▁evolution	-11.6372
▁reinforc	-11.6374
▁reversed	-11.6377
▁nasd	-11.638
▁weaknesses	-11.6381
▁bowling	-11.6381
▁indirectly	-11.6382
▁roller	-11.6384
▁super	-11.6385
▁entit	-11.6387
ism	-11.639
gene	-11.6394
▁resigning	-11.6395
▁underwrite	-11.6395
▁loved	-11.6396
▁altered	-11.6398
▁intervene	-11.64
▁luf	-11.6402
using	-11.6403
▁sorts	-11.6404
▁olympics	-11.6411
▁exclusively	-11.6411
▁occasions	-11.6414
▁fuels	-11.6417
▁peaked	-11.6418
▁colleges	-11.642
dipped	-11.6422
▁bags	-11.6422
▁etc	-11.6424
▁johns	-11.643
▁sponsored	-11.643
▁collected	-11.6432
agnos	-11.6437
▁allocat	-11.6438
atch	-11.6438
▁slumped	-11.6439
▁conve	-11.644
▁bargaining	-11.6445
ovo	-11.6447
▁taped	-11.6448
▁polled	-11.6464
▁pesticides	-11.6465
▁att	-11.6468
▁dies	-11.6471
backe	-11.6478
cement	-11.6484
prox	-11.6485
▁trem	-11.6491
▁outperform	-11.6495
▁harbors	-11.65
▁copying	-11.6505
▁discourage	-11.6507
▁newhouse	-11.6508
action	-11.651
nstitutional	-11.6514
authoriz	-11.6518
▁supervisors	-11.6518
▁afterward	-11.6531
umn	-11.6532
▁withstand	-11.6535
▁sandinistas	-11.6536
▁bearings	-11.654
nancy	-11.6545
▁elements	-11.6552
▁seasons	-11.6553
▁circles	-11.6571
▁wires	-11.658
▁studi	-11.6583
▁hats	-11.6586
assault	-11.6593
nts	-11.6603
▁preferences	-11.6607
▁diamonds	-11.6607
▁disappointments	-11.6607
▁cure	-11.6613
▁advises	-11.6618
even	-11.6625
▁perceptions	-11.6625
▁towns	-11.6641
ched	-11.6644
ruce	-11.6645
pact	-11.665
iler	-11.6657
▁backers	-11.6661
iro	-11.6662
holders	-11.6675
▁differently	-11.6676
▁mile	-11.6681
like	-11.6685
hn	-11.6687
▁drops	-11.6698
▁exceptions	-11.6701
▁labels	-11.6705
▁narrowing	-11.6717
▁males	-11.6723
shore	-11.6729
fective	-11.673
▁parks	-11.6733
raft	-11.6735
▁practic	-11.6738
▁degrees	-11.6746
▁rothschilds	-11.6749
▁blu	-11.676
▁comparisons	-11.6767
▁recommends	-11.6772
fman	-11.6773
▁presidents	-11.6789
ship	-11.6795
lowe	-11.68
▁trains	-11.6807
ode	-11.6807
▁grab	-11.6815
▁glo	-11.6817
▁sentences	-11.6819
▁automobiles	-11.682
elling	-11.6829
▁leases	-11.6832
▁desks	-11.6834
tch	-11.6842
pa	-11.6844
▁af	-11.6848
▁strateg	-11.6852
▁scenarios	-11.6856
▁ten	-11.6874
come	-11.6877
▁trials	-11.6885
▁haven	-11.6887
ich	-11.6899
▁tapes	-11.691
hard	-11.6911
▁spokesm	-11.6916
ving	-11.6916
▁salt	-11.6923
▁rac	-11.6934
ni	-11.6937
▁cook	-11.6943
yle	-11.6947
▁airing	-11.6952
▁trips	-11.6959
gen	-11.6967
▁evaluat	-11.7012
spa	-11.7015
itness	-11.7026
▁steer	-11.7029
▁studios	-11.704
▁hess	-11.7043
▁exter	-11.7051
bs	-11.7055
if	-11.7074
workers	-11.7077
▁semiconductors	-11.7086
▁symp	-11.7091
▁pla	-11.7092
▁pie	-11.7097
pawn	-11.7105
nova	-11.7128
▁gin	-11.7142
▁palm	-11.716
▁pan	-11.7177
▁refer	-11.7179
▁fl	-11.7192
price	-11.7196
ping	-11.7213
equity	-11.7214
▁tonight	-11.7217
mr	-11.7217
oping	-11.7223
family	-11.7234
▁citi	-11.7239
▁ral	-11.7244
jam	-11.7245
cer	-11.7255
▁skeptic	-11.726
ada	-11.7264
▁anticipat	-11.7267
▁generale	-11.7269
▁dealership	-11.7271
▁opponent	-11.7275
▁politician	-11.7276
▁demonstration	-11.7276
▁adult	-11.7276
▁activist	-11.7277
▁auctions	-11.7282
▁tall	-11.7285
venture	-11.7295
▁upgrad	-11.7295
▁pas	-11.7296
buffe	-11.73
▁satisf	-11.7301
▁capitalize	-11.7304
▁prob	-11.7321
▁staffs	-11.7327
seeking	-11.7335
▁grower	-11.7336
▁stones	-11.7346
▁ref	-11.7348
▁distan	-11.7352
tible	-11.7359
ification	-11.737
laying	-11.7375
cancer	-11.7375
▁plung	-11.7379
▁driver	-11.7382
▁metr	-11.7384
▁bowl	-11.7384
bike	-11.7385
▁significan	-11.7386
▁mont	-11.7386
ration	-11.7387
worth	-11.7387
owes	-11.739
▁bon	-11.7392
class	-11.7399
▁embarrass	-11.7401
▁files	-11.7412
▁preserv	-11.7412
ronically	-11.7412
▁abrupt	-11.7416
▁capture	-11.7417
▁undermine	-11.7417
▁relieve	-11.7421
ctively	-11.7425
avai	-11.7431
▁maxi	-11.7432
▁profession	-11.7433
▁disposa	-11.7436
▁olympi	-11.7436
30	-11.7438
▁athlet	-11.7438
▁fraction	-11.7439
▁appreciat	-11.744
▁birth	-11.744
▁prudent	-11.744
▁chemi	-11.744
▁optimis	-11.7441
▁calendar	-11.7441
▁cemetery	-11.7441
▁cushion	-11.7441
▁deductible	-11.7441
▁deputies	-11.7441
▁deukmejian	-11.7441
▁dilemma	-11.7441
▁enemies	-11.7441
▁injection	-11.7441
▁jupiter	-11.7441
▁jurisdiction	-11.7441
▁korotich	-11.7441
▁krasnoyarsk	-11.7441
▁lyonnais	-11.7441
▁maneuver	-11.7441
▁nebraska	-11.7441
▁ontario	-11.7441
▁pakistan	-11.7441
▁pearce	-11.7441
▁pfizer	-11.7441
▁qualified	-11.7441
▁reconciliation	-11.7441
▁ridiculous	-11.7441
▁steppenwolf	-11.7441
▁temptation	-11.7441
▁torrijos	-11.7441
▁vienna	-11.7441
▁wohlstetter	-11.7441
▁caltrans	-11.7441
▁gridlock	-11.7441
▁seagate	-11.7441
▁literature	-11.7441
▁tendency	-11.7441
▁diaper	-11.7441
▁equitable	-11.7441
▁clinton	-11.7441
▁minicomputers	-11.7441
▁dubious	-11.7441
▁unhappy	-11.7441
▁ortiz	-11.7441
▁initiated	-11.7441
▁metromedia	-11.7441
▁educators	-11.7441
▁equipped	-11.7441
▁prescription	-11.7441
▁clerk	-11.7441
▁outflows	-11.7441
▁replied	-11.7441
▁necessity	-11.7441
▁residence	-11.7441
▁billionaire	-11.7441
▁guinea	-11.7441
▁invented	-11.7441
▁offshore	-11.7441
▁marriage	-11.7441
▁horrible	-11.7441
▁exploded	-11.7441
▁coatings	-11.7441
▁edisto	-11.7442
▁koch	-11.7442
▁manipulation	-11.7442
▁homelessness	-11.7442
▁credible	-11.7442
▁chaos	-11.7442
▁variations	-11.7442
▁coach	-11.7443
▁antibody	-11.7443
▁bribery	-11.7443
▁subsidy	-11.7444
▁correction	-11.7444
▁minus	-11.7444
▁tube	-11.7444
▁seita	-11.7445
▁stol	-11.7445
▁irvin	-11.7445
▁shoppers	-11.7445
▁unrest	-11.7445
▁restrictive	-11.7446
▁abramson	-11.7446
▁litera	-11.7446
▁deviation	-11.7446
▁potatoes	-11.7447
▁troubling	-11.7447
▁wives	-11.7448
▁shaking	-11.7448
▁inefficient	-11.7448
▁baum	-11.7449
▁medicare	-11.7449
reference	-11.7449
▁representation	-11.7449
▁franchisers	-11.745
▁trash	-11.745
▁francis	-11.7451
▁semi	-11.7451
▁digest	-11.7453
acle	-11.7456
▁slack	-11.7457
▁outright	-11.7457
nnet	-11.7457
▁transit	-11.7458
▁fashionable	-11.7459
vators	-11.7461
▁licensing	-11.7468
▁atlanti	-11.747
▁forge	-11.747
▁gathered	-11.747
▁incomplete	-11.7472
▁televis	-11.7473
▁disrupted	-11.7473
▁shaken	-11.7473
▁haul	-11.7474
gued	-11.7474
▁inevitable	-11.7474
▁fax	-11.7475
frame	-11.7475
▁valuation	-11.7477
▁softening	-11.7477
▁lifetime	-11.7479
brook	-11.748
▁mural	-11.748
▁speculat	-11.7481
▁panels	-11.7484
roper	-11.7487
▁retreated	-11.7489
▁boring	-11.749
▁yeast	-11.749
▁bono	-11.75
carry	-11.7503
profitable	-11.7503
▁intensive	-11.7513
▁shocked	-11.7514
▁dire	-11.7516
boe	-11.7521
rov	-11.7522
▁belgi	-11.7526
▁neb	-11.7532
▁scar	-11.7534
▁coordinat	-11.7534
▁dea	-11.7535
▁tabl	-11.7536
▁cough	-11.7539
▁belts	-11.7546
trapped	-11.755
▁jokes	-11.7551
▁measurements	-11.7553
topped	-11.7554
▁gum	-11.7556
▁ele	-11.7557
▁robins	-11.7559
▁ballooning	-11.7561
▁stretched	-11.7566
▁inflat	-11.7568
▁knocking	-11.7569
▁scholars	-11.7572
friendly	-11.7574
▁hair	-11.7574
dealer	-11.7578
rival	-11.7578
hall	-11.758
barrel	-11.7587
▁guerrillas	-11.7593
▁cra	-11.7594
ntage	-11.7607
▁bottl	-11.7613
▁skeptics	-11.7617
iety	-11.7619
▁soo	-11.7625
▁rome	-11.7626
chief	-11.7628
▁soar	-11.7629
▁indefinitely	-11.7637
specta	-11.7639
▁quantit	-11.7639
▁bricks	-11.765
▁explosions	-11.7653
deemed	-11.7657
▁arena	-11.7662
▁forgotten	-11.7663
▁bag	-11.7667
lenn	-11.7668
▁hel	-11.767
weigh	-11.767
rriers	-11.7677
itar	-11.7684
kage	-11.7688
keeps	-11.7691
▁aoun	-11.7694
enni	-11.7704
▁flu	-11.7707
▁administrators	-11.7708
oid	-11.7712
▁affidavits	-11.7713
▁defending	-11.7716
▁lbos	-11.772
▁fu	-11.7723
▁trails	-11.7725
▁eu	-11.773
ri	-11.7734
▁burge	-11.7736
▁practiced	-11.7739
▁sums	-11.7752
▁ny	-11.777
▁nat	-11.7775
▁cand	-11.778
pwa	-11.7783
▁rash	-11.7786
▁fires	-11.7793
▁drinks	-11.7799
netic	-11.7803
his	-11.7803
fisca	-11.7819
▁impress	-11.7827
▁horses	-11.7829
computer	-11.7836
▁firmer	-11.7852
nker	-11.7855
▁killings	-11.7856
tones	-11.7862
▁beating	-11.7863
▁float	-11.7864
ier	-11.7871
▁notabl	-11.7876
▁schemes	-11.789
▁pools	-11.7892
dded	-11.7898
▁tci	-11.7903
llon	-11.7911
▁poli	-11.7919
▁dres	-11.792
stry	-11.7933
▁airports	-11.7934
willing	-11.7934
intel	-11.7935
▁reserved	-11.7938
▁patter	-11.794
▁cater	-11.7941
▁disclosures	-11.7952
▁bother	-11.7953
ole	-11.7959
lion	-11.7962
iving	-11.7965
obby	-11.7981
cope	-11.7989
▁swaps	-11.7989
▁liste	-11.7991
pher	-11.7992
proving	-11.7992
real	-11.7995
some	-11.8004
ired	-11.8006
▁assumptions	-11.8012
▁audits	-11.8019
▁nomina	-11.802
▁jal	-11.8029
▁ear	-11.8056
▁indians	-11.807
▁medica	-11.8084
▁cer	-11.8105
ium	-11.8107
raised	-11.813
eer	-11.8134
▁dism	-11.8134
▁sky	-11.8137
▁foundations	-11.8138
tcher	-11.8146
▁defer	-11.8157
solve	-11.8164
▁aut	-11.8166
van	-11.8172
▁studie	-11.8182
▁spoken	-11.819
▁bec	-11.8202
▁continu	-11.8203
▁cancers	-11.8206
order	-11.821
▁forever	-11.8218
curr	-11.8235
▁gree	-11.8243
home	-11.8244
▁careers	-11.8246
▁sc	-11.8251
▁preci	-11.8256
arby	-11.8263
▁marri	-11.8283
eller	-11.8286
▁theories	-11.8291
ample	-11.83
▁z	-11.8302
▁grains	-11.8303
coming	-11.8303
cel	-11.8303
ena	-11.8323
leased	-11.8351
soviet	-11.8358
▁opera	-11.836
▁styles	-11.8375
ho	-11.8376
▁raci	-11.8382
war	-11.8386
lude	-11.8388
▁desi	-11.8394
written	-11.8396
▁seconds	-11.8425
▁bann	-11.8429
▁courses	-11.843
rity	-11.8463
artin	-11.8476
backs	-11.848
posed	-11.8482
offs	-11.8492
mo	-11.8495
inted	-11.8495
▁prospe	-11.8496
drug	-11.8517
▁crystal	-11.8518
▁guerrilla	-11.8522
▁pesticide	-11.8522
▁negotiation	-11.8522
sis	-11.8524
▁installation	-11.8524
▁cosmetic	-11.8525
▁troop	-11.8527
▁supplie	-11.8528
▁prize	-11.8529
dian	-11.853
▁guest	-11.8531
western	-11.8532
from	-11.8532
▁rebel	-11.8534
▁understands	-11.8549
nea	-11.8552
▁bro	-11.8568
▁nose	-11.858
▁eric	-11.8584
▁yard	-11.8595
▁shippe	-11.8595
radic	-11.8598
lated	-11.8598
mination	-11.8627
▁sco	-11.8633
walk	-11.8637
bbie	-11.8641
▁ku	-11.8651
▁implement	-11.8653
▁energ	-11.8658
▁adm	-11.8666
once	-11.8666
nity	-11.8673
arter	-11.8677
▁subscribe	-11.868
lew	-11.8683
▁averag	-11.8689
▁virgin	-11.869
▁ambitions	-11.8691
▁baldwin	-11.8691
▁constituency	-11.8691
▁cupertino	-11.8691
▁dioxide	-11.8691
▁disabilities	-11.8691
▁divestiture	-11.8691
▁fantasy	-11.8691
▁fazio	-11.8691
▁glamorous	-11.8691
▁horizon	-11.8691
▁hubbard	-11.8691
▁hyundai	-11.8691
▁incinerator	-11.8691
▁inspection	-11.8691
▁jitters	-11.8691
▁kgb	-11.8691
▁mafia	-11.8691
▁malignant	-11.8691
▁mcalpine	-11.8691
▁memphis	-11.8691
▁mushrooms	-11.8691
▁peddling	-11.8691
▁pervasive	-11.8691
▁polyethylene	-11.8691
▁preamble	-11.8691
▁privacy	-11.8691
▁remodeling	-11.8691
▁shakespeare	-11.8691
▁sovereignty	-11.8691
▁tailspin	-11.8691
▁vague	-11.8691
▁verwoerd	-11.8691
▁noxell	-11.8691
▁wyoming	-11.8691
▁analytical	-11.8691
▁constraints	-11.8691
▁inouye	-11.8691
▁misstated	-11.8691
▁underwear	-11.8691
▁wilbur	-11.8691
▁encountered	-11.8691
▁feedlots	-11.8691
▁bronfman	-11.8691
▁intensify	-11.8691
▁disadvantage	-11.8691
▁debris	-11.8691
▁exotic	-11.8691
▁unesco	-11.8691
▁stereo	-11.8691
▁disabled	-11.8691
▁chevy	-11.8691
▁tenants	-11.8691
▁wrap	-11.8691
▁excitement	-11.8691
▁notebook	-11.8691
▁dominion	-11.8691
▁humor	-11.8691
▁pinpoint	-11.8691
▁arbitrator	-11.8691
▁hammond	-11.8691
▁jolla	-11.8691
▁unpopular	-11.8691
▁sorrell	-11.8691
▁psych	-11.8692
▁underground	-11.8692
▁toxic	-11.8692
▁capability	-11.8692
▁insistence	-11.8692
▁proposition	-11.8692
▁twist	-11.8692
▁replies	-11.8692
▁deceptive	-11.8692
▁shutdown	-11.8693
▁relax	-11.8693
▁overcapacity	-11.8693
▁illness	-11.8693
▁punishment	-11.8693
▁counties	-11.8693
▁harsh	-11.8693
▁disagreement	-11.8693
▁jewelers	-11.8694
▁photographic	-11.8694
▁repayment	-11.8694
▁coupons	-11.8694
▁chores	-11.8694
▁stockbrokers	-11.8694
▁solicit	-11.8695
▁hurry	-11.8695
▁earliest	-11.8696
▁policyholders	-11.8696
▁peaceful	-11.8696
▁agric	-11.8696
▁effectiveness	-11.8696
▁richfield	-11.8698
▁overdue	-11.8698
▁shack	-11.8698
▁materialized	-11.8699
▁lesko	-11.87
▁burton	-11.87
▁coaches	-11.87
▁reformers	-11.8702
▁plight	-11.8703
▁seniority	-11.8704
author	-11.8704
▁needham	-11.8708
▁coats	-11.8709
▁analyze	-11.871
▁truce	-11.871
olic	-11.8711
▁expression	-11.8713
egon	-11.8717
▁grave	-11.8718
▁fix	-11.872
formal	-11.872
▁capita	-11.8722
teria	-11.8723
▁internationally	-11.8725
▁nev	-11.8726
unification	-11.8726
ct	-11.8727
▁alarmed	-11.8727
craft	-11.8728
ranch	-11.8729
simil	-11.8729
▁undervalued	-11.873
presentation	-11.8731
▁fake	-11.8732
▁prestige	-11.8733
▁sin	-11.8735
▁sch	-11.8736
▁wade	-11.8738
wcr	-11.874
▁greate	-11.8745
▁leaped	-11.8746
▁fighter	-11.8749
▁undertaking	-11.8754
▁lens	-11.8761
▁adequately	-11.8763
▁unix	-11.8764
▁axa	-11.8768
▁pitches	-11.8769
▁performances	-11.8772
▁goodman	-11.8775
▁lighter	-11.8776
▁principals	-11.878
▁cooled	-11.8784
ifted	-11.879
▁solved	-11.8793
▁murdered	-11.8795
igna	-11.8796
▁performers	-11.8796
rton	-11.8801
ited	-11.8803
environmentalism	-11.8807
▁guns	-11.8808
▁corrected	-11.881
issued	-11.8813
▁clues	-11.8815
▁curr	-11.8818
▁hurdles	-11.8818
▁recalled	-11.8818
▁storer	-11.8818
▁exo	-11.8825
wanted	-11.8834
▁trough	-11.8839
▁habits	-11.8839
game	-11.8841
sharing	-11.8848
▁busi	-11.8851
sumi	-11.8852
ugge	-11.8853
▁burt	-11.8858
▁prizes	-11.8859
▁pope	-11.8861
banking	-11.8861
name	-11.8865
passed	-11.8874
ernst	-11.8891
scott	-11.8892
▁sue	-11.8893
consider	-11.8912
▁russ	-11.8914
lambert	-11.8919
▁switching	-11.8923
mail	-11.8927
ade	-11.894
friend	-11.8946
lman	-11.8949
treating	-11.895
waiting	-11.8953
enforcement	-11.8956
published	-11.8956
▁gar	-11.8963
casino	-11.8966
20	-11.8969
anticipated	-11.8971
▁ducks	-11.8976
wright	-11.8985
▁jacob	-11.8985
▁wings	-11.8987
▁hazards	-11.9001
uk	-11.9005
border	-11.9007
minute	-11.9021
sufficient	-11.9021
▁suitors	-11.9025
injury	-11.9026
rase	-11.9029
▁chair	-11.9032
▁ironic	-11.9039
print	-11.9042
expected	-11.9045
▁raiders	-11.9046
spar	-11.9057
planes	-11.9065
olive	-11.9066
tra	-11.9067
▁rein	-11.907
▁li	-11.9078
▁nl	-11.908
▁builds	-11.9087
▁layoffs	-11.9101
laus	-11.9102
▁tens	-11.9126
▁exported	-11.913
▁strategists	-11.9137
▁insure	-11.9137
ement	-11.914
▁setbacks	-11.9141
▁ward	-11.9143
respond	-11.9156
▁matte	-11.9157
▁bart	-11.9162
right	-11.9172
▁wach	-11.9183
ify	-11.9187
iron	-11.9187
▁spre	-11.9193
palm	-11.9196
▁reviewed	-11.92
rtie	-11.9215
▁mailing	-11.922
▁sher	-11.9223
▁bud	-11.9225
▁arch	-11.9234
actical	-11.9245
▁probable	-11.9255
lar	-11.9261
zu	-11.9265
reas	-11.9279
tar	-11.928
pac	-11.928
▁dates	-11.9298
dus	-11.9301
taken	-11.9303
▁conservat	-11.9309
pped	-11.9318
▁ring	-11.9322
▁exists	-11.9324
▁freeways	-11.9326
vari	-11.9332
nbc	-11.9339
gly	-11.9344
▁woes	-11.9351
closed	-11.9356
insurance	-11.9356
bonds	-11.9358
▁woods	-11.9361
inson	-11.9361
▁ratios	-11.9364
▁stadiums	-11.9364
▁issuer	-11.9367
sma	-11.9368
vans	-11.9379
▁execut	-11.9406
eventh	-11.9409
▁crow	-11.9416
dow	-11.9418
▁aichi	-11.9421
productive	-11.9427
tro	-11.9428
inte	-11.9429
▁wer	-11.9429
▁curbs	-11.943
▁theaters	-11.9437
▁reputa	-11.9437
▁hosts	-11.9439
▁aboard	-11.944
▁aired	-11.9441
▁syndicates	-11.9452
▁freedoms	-11.9454
▁secrets	-11.9456
rown	-11.9456
▁thur	-11.9471
nched	-11.9473
gger	-11.9475
erated	-11.9488
▁divers	-11.9492
▁summ	-11.9492
▁channels	-11.9499
lays	-11.9501
▁thi	-11.9506
▁lt	-11.9512
nw	-11.9518
▁trin	-11.952
▁floors	-11.9528
nivers	-11.9549
▁responsi	-11.9565
▁ferr	-11.9566
dell	-11.9578
azard	-11.9593
▁commit	-11.9598
stern	-11.9599
rica	-11.9599
▁mothers	-11.9603
south	-11.9606
mc	-11.9608
▁ven	-11.9612
▁circulat	-11.9612
▁rod	-11.9622
▁educate	-11.9625
ti	-11.9627
▁likes	-11.9628
nville	-11.9634
ranged	-11.9644
▁ice	-11.9664
nni	-11.9667
▁volunt	-11.9677
▁circuits	-11.9681
▁toys	-11.9681
▁opp	-11.9686
verage	-11.9694
ologi	-11.9723
▁weekes	-11.9726
med	-11.9736
angered	-11.974
nist	-11.9746
tical	-11.9759
▁phon	-11.9765
fo	-11.9779
ank	-11.9793
▁lying	-11.9805
▁fad	-11.981
view	-11.9836
equently	-11.9836
country	-11.9848
▁titles	-11.9853
▁camps	-11.9857
▁appl	-11.9891
issues	-11.9897
▁broade	-11.9902
burg	-11.9906
ntar	-11.9911
▁productions	-11.9915
▁operat	-11.9924
apped	-11.9942
▁resource	-11.9947
▁bullet	-11.9949
▁scholar	-11.995
▁habit	-11.9951
▁superconductor	-11.9952
▁workstation	-11.9952
▁participant	-11.9953
▁transplant	-11.9953
▁expenditure	-11.9953
▁consequence	-11.9953
▁cloud	-11.9955
▁robin	-11.9957
▁finger	-11.9957
▁warn	-11.9958
▁journalist	-11.9959
▁zone	-11.9959
▁investigator	-11.9968
▁revision	-11.9968
hone	-11.9982
▁sample	-11.9987
▁epo	-11.9988
rank	-11.9996
ped	-12.0013
▁estimat	-12.0021
▁restrain	-12.0021
lap	-12.0022
▁clue	-12.0023
▁dipped	-12.0043
ncer	-12.0056
▁arrang	-12.0061
▁judg	-12.0065
▁disrupt	-12.007
▁teache	-12.0071
▁consume	-12.0072
▁dismiss	-12.0075
▁practi	-12.0075
▁conspir	-12.008
▁contemplat	-12.008
executive	-12.0083
erely	-12.0083
▁jeopard	-12.0083
▁facilit	-12.0085
▁alarm	-12.0086
▁honest	-12.0087
▁gather	-12.0088
▁russia	-12.0092
▁gradual	-12.0096
▁justifie	-12.0097
▁respective	-12.0105
opia	-12.011
▁neutr	-12.0111
▁brewer	-12.0112
xtra	-12.0116
hibit	-12.0117
▁manipulat	-12.0118
agne	-12.0118
▁exhibit	-12.0119
▁stimulat	-12.0119
▁bankrupt	-12.0119
▁argentina	-12.0119
▁collaboration	-12.0119
▁confiscated	-12.0119
▁convenient	-12.0119
▁crumbling	-12.0119
▁depletion	-12.0119
▁doctrine	-12.0119
▁doldrums	-12.0119
▁enviro	-12.0119
▁evasion	-12.0119
▁exhausted	-12.0119
▁faculty	-12.0119
▁fertilizer	-12.0119
▁flavor	-12.0119
▁hancock	-12.0119
▁hepatitis	-12.0119
▁indonesia	-12.0119
▁jittery	-12.0119
▁kitchen	-12.0119
▁mitterrand	-12.0119
▁mosbacher	-12.0119
▁occupied	-12.0119
▁osaka	-12.0119
▁peanuts	-12.0119
▁portugal	-12.0119
▁pretoria	-12.0119
▁propaganda	-12.0119
▁rehabilitation	-12.0119
▁satisfactory	-12.0119
▁seymour	-12.0119
▁sverdlovsk	-12.0119
▁tribune	-12.0119
▁tumbling	-12.0119
▁turbulence	-12.0119
▁unsolicited	-12.0119
▁unwarranted	-12.0119
▁upheaval	-12.0119
▁whiskey	-12.0119
▁censorship	-12.0119
▁enemy	-12.0119
▁equitec	-12.0119
▁gestures	-12.0119
▁lumpur	-12.0119
▁nightmare	-12.0119
▁scorpio	-12.0119
▁somalia	-12.0119
▁spectrum	-12.0119
▁tragedy	-12.0119
▁violetta	-12.0119
▁annuities	-12.0119
▁confederation	-12.0119
▁discarded	-12.0119
▁ministries	-12.0119
▁newcomers	-12.0119
▁omaha	-12.0119
▁benign	-12.0119
▁concord	-12.0119
abortionists	-12.0119
▁bodies	-12.0119
▁champ	-12.0119
▁connolly	-12.0119
▁deficiencies	-12.012
▁haunts	-12.012
▁municipalities	-12.012
▁waterworks	-12.012
▁entertaining	-12.012
▁scotland	-12.012
▁confused	-12.012
▁mainstay	-12.012
▁thriving	-12.012
▁urgency	-12.012
▁zeta	-12.012
▁trudeau	-12.012
▁perjury	-12.012
▁arteries	-12.012
drop	-12.012
▁donuts	-12.012
▁friendship	-12.012
▁invitation	-12.012
xist	-12.012
▁barber	-12.012
▁adams	-12.012
▁pigs	-12.012
▁royalties	-12.012
▁casual	-12.012
ultu	-12.012
▁enthusiastic	-12.012
▁drastically	-12.0121
▁infringe	-12.0121
▁summary	-12.0121
▁advent	-12.0121
▁wheels	-12.0121
▁endorsement	-12.0121
▁offenders	-12.0122
▁harmful	-12.0122
▁mehl	-12.0122
▁dominance	-12.0122
▁workplace	-12.0122
▁ethi	-12.0124
▁demler	-12.0124
angyo	-12.0124
▁uncommon	-12.0124
▁troublesome	-12.0124
▁inflows	-12.0124
▁lynn	-12.0124
▁arrange	-12.0124
▁tricky	-12.0125
▁smokers	-12.0125
▁heavier	-12.0125
▁bullion	-12.0125
▁accountability	-12.0125
▁tharp	-12.0125
▁phelps	-12.0125
▁echo	-12.0126
▁norway	-12.0127
▁silent	-12.0127
moran	-12.0127
cient	-12.0127
▁landmark	-12.0128
urement	-12.0128
▁balked	-12.0128
▁dramatically	-12.0129
▁ital	-12.013
roder	-12.013
▁minim	-12.013
▁hub	-12.0131
▁thrust	-12.0131
▁flowers	-12.0131
▁campus	-12.0131
▁midday	-12.0133
▁differ	-12.0134
face	-12.0135
▁prevention	-12.0137
▁entre	-12.014
lance	-12.0141
▁chile	-12.0141
▁wound	-12.0142
▁tune	-12.0142
▁circulated	-12.0144
▁murd	-12.0144
▁noise	-12.0145
▁kim	-12.0145
▁vax	-12.0146
▁grid	-12.0147
▁trap	-12.0148
▁goodwill	-12.0149
▁meals	-12.0149
▁overruns	-12.015
▁abruptly	-12.0151
▁undermined	-12.0152
dical	-12.0153
▁powerhouse	-12.0153
▁wishes	-12.0154
▁indexation	-12.0155
▁sentencing	-12.0158
rodin	-12.0158
▁wedd	-12.0161
▁courthouse	-12.0161
▁undeveloped	-12.0162
▁surpluses	-12.0163
▁stabilized	-12.0168
▁belt	-12.0168
▁downside	-12.0169
▁damn	-12.017
▁minn	-12.017
▁lineup	-12.017
▁dive	-12.0173
▁mouse	-12.0174
▁crest	-12.0175
▁disagreed	-12.0177
named	-12.0177
▁worsening	-12.0179
▁bothered	-12.018
▁debates	-12.018
▁ce	-12.0181
▁decreased	-12.0184
▁surrendered	-12.0188
▁narrower	-12.0189
▁worsen	-12.019
▁thick	-12.0193
duff	-12.0199
identified	-12.0202
▁octel	-12.0202
pair	-12.0213
rose	-12.0213
▁tightened	-12.0215
▁statewide	-12.0217
▁bran	-12.0218
▁spo	-12.0221
incent	-12.0221
losing	-12.0226
▁flooding	-12.0229
dividend	-12.023
shed	-12.0232
▁universe	-12.0232
▁successes	-12.0236
school	-12.0259
piece	-12.0259
▁garr	-12.026
▁develops	-12.026
▁snow	-12.0262
▁fallout	-12.0265
▁spouses	-12.0266
kers	-12.027
▁monte	-12.0275
▁clouds	-12.0292
▁fingers	-12.0293
▁repaired	-12.0301
currency	-12.0303
▁bloody	-12.0316
▁vis	-12.0319
pending	-12.0323
sa	-12.0325
▁approvals	-12.033
▁advertise	-12.0334
▁roots	-12.0341
▁dealerships	-12.0347
secretary	-12.0352
away	-12.0354
▁layer	-12.0361
▁elli	-12.0363
▁yards	-12.0363
▁chor	-12.0366
itude	-12.0368
spective	-12.0371
▁flaws	-12.0377
▁scare	-12.0383
▁onerous	-12.0389
▁arise	-12.0391
▁ros	-12.0403
▁shorter	-12.0403
▁frustrati	-12.0408
crash	-12.0411
▁noble	-12.0415
ita	-12.0417
▁acquirer	-12.0419
▁dal	-12.0422
▁charts	-12.0424
▁disp	-12.0426
built	-12.0427
▁coll	-12.0437
▁mate	-12.044
▁ki	-12.045
▁plains	-12.045
▁hispanics	-12.0454
▁collecti	-12.0455
gas	-12.0457
▁southe	-12.0458
idder	-12.0465
especta	-12.0468
▁porter	-12.0474
▁statutes	-12.0479
▁whitt	-12.0481
▁tum	-12.0482
▁identi	-12.0483
iary	-12.0483
▁hon	-12.0484
cht	-12.0491
▁dominat	-12.0491
raising	-12.0494
area	-12.0497
wage	-12.0503
stone	-12.0507
earnings	-12.0513
league	-12.0516
och	-12.052
▁assassinations	-12.0534
▁weiss	-12.0538
ulous	-12.0549
▁topics	-12.0551
bay	-12.0555
utter	-12.0567
cher	-12.0568
▁shocks	-12.0579
▁backlogs	-12.0586
chola	-12.0589
fashion	-12.0592
season	-12.0599
faced	-12.0599
▁hook	-12.0601
▁beam	-12.0604
▁pot	-12.0607
▁dreams	-12.061
ack	-12.0616
▁nic	-12.0619
▁executions	-12.0626
▁lyon	-12.0627
▁bargains	-12.0628
casualty	-12.063
▁jum	-12.0632
omy	-12.0634
bear	-12.0641
ere	-12.0647
▁bottles	-12.0655
▁labs	-12.0664
▁newsletters	-12.0666
ors	-12.0675
▁existed	-12.0681
bound	-12.0688
buses	-12.069
has	-12.0694
mi	-12.0703
uge	-12.071
wave	-12.0715
▁mcc	-12.0718
wned	-12.0735
forward	-12.0738
filled	-12.074
▁abuses	-12.0742
hat	-12.0743
do	-12.075
dicated	-12.0752
▁mari	-12.076
▁cre	-12.0762
▁ide	-12.0776
▁og	-12.0779
▁sacr	-12.0785
elega	-12.0798
oth	-12.08
page	-12.0804
comp	-12.0804
lived	-12.081
withstand	-12.0814
▁foes	-12.0816
▁locally	-12.082
▁deadlines	-12.0824
spoken	-12.0825
hanging	-12.0825
ud	-12.0826
▁tide	-12.083
was	-12.0832
13	-12.0858
▁bl	-12.0871
comfort	-12.0884
▁aga	-12.0893
own	-12.0913
▁vacat	-12.094
tal	-12.0941
ybody	-12.0943
▁stays	-12.095
▁financiers	-12.0953
▁steppe	-12.0963
▁acknowledg	-12.0965
gian	-12.0971
▁bowe	-12.0975
▁ea	-12.0981
armed	-12.0984
▁competes	-12.0987
udio	-12.099
▁implic	-12.099
▁pl	-12.0991
▁gri	-12.1016
ature	-12.1019
▁ron	-12.1031
inke	-12.1036
fre	-12.1039
▁ph	-12.1057
▁codes	-12.1065
si	-12.107
bow	-12.1093
dential	-12.1095
▁cam	-12.1097
▁gun	-12.115
ivan	-12.1152
court	-12.1157
date	-12.1165
▁pipelines	-12.1165
▁ta	-12.1168
▁devo	-12.1169
rick	-12.1172
ven	-12.1183
▁eliminati	-12.119
▁exposures	-12.1192
▁lor	-12.1192
pass	-12.1194
und	-12.1195
▁cur	-12.1198
ete	-12.1217
ress	-12.1233
ab	-12.1238
▁situations	-12.1244
▁acqui	-12.1256
arbor	-12.1265
▁monitors	-12.1272
▁disco	-12.1279
cnb	-12.1294
arc	-12.1296
▁forc	-12.13
arried	-12.1321
wel	-12.1327
pe	-12.1361
▁col	-12.1362
net	-12.1377
▁lei	-12.1393
gh	-12.141
ually	-12.1412
▁leo	-12.1425
▁commerciale	-12.144
▁advertis	-12.1452
▁bans	-12.1459
pur	-12.1467
bates	-12.1468
lets	-12.147
igned	-12.1476
▁pulls	-12.1494
▁handl	-12.1498
▁mura	-12.1506
scribed	-12.151
orm	-12.1512
▁inno	-12.1524
obe	-12.1567
ures	-12.1592
▁oblig	-12.1595
▁paint	-12.16
▁plac	-12.1602
ugh	-12.1604
▁ordina	-12.1608
▁seizure	-12.1612
▁hurdle	-12.1615
▁guideline	-12.1618
▁implication	-12.162
▁spouse	-12.1622
▁tremor	-12.1622
▁sideline	-12.1623
▁jean	-12.1627
▁mineral	-12.1628
▁joke	-12.163
▁subscriber	-12.1633
▁sho	-12.1643
▁measurement	-12.1646
▁projecting	-12.1646
▁custom	-12.1648
▁ringer	-12.1648
cid	-12.1651
ridge	-12.1657
nau	-12.1657
roke	-12.1658
▁spect	-12.1661
▁adjuster	-12.1673
▁sche	-12.1677
▁rocks	-12.1679
await	-12.1681
▁theatr	-12.1685
▁environmentalis	-12.1698
pple	-12.1701
▁gor	-12.1705
▁potent	-12.1706
nitive	-12.1708
ue	-12.1712
▁def	-12.1718
▁deteriorat	-12.1726
▁unload	-12.1726
▁organi	-12.1741
insured	-12.1746
▁craft	-12.1747
▁deb	-12.1747
▁abolish	-12.1748
▁revamp	-12.1749
▁prosecut	-12.1751
ennet	-12.1754
▁depress	-12.1756
▁atmospher	-12.1756
▁exclusiv	-12.176
▁analyz	-12.1761
▁integrate	-12.1762
▁complicate	-12.1762
▁observe	-12.1762
att	-12.1763
alysis	-12.1763
av	-12.1764
▁liquidate	-12.1764
▁conclud	-12.1766
▁terminate	-12.177
▁potato	-12.1777
▁schwa	-12.1777
▁abrams	-12.1778
▁blo	-12.1779
▁lesk	-12.178
▁continent	-12.178
▁terroris	-12.178
▁secretar	-12.1781
▁euro	-12.1784
▁mode	-12.1785
▁guarant	-12.1785
▁confront	-12.1786
▁\*\*	-12.1786
▁absurd	-12.1786
▁abundant	-12.1786
▁aggregates	-12.1786
▁bacterium	-12.1786
▁brilliant	-12.1786
▁brouwer	-12.1786
▁burmah	-12.1786
▁clobbered	-12.1786
▁conasupo	-12.1786
▁dishonesty	-12.1786
▁elliott	-12.1786
▁escrow	-12.1786
▁euphoria	-12.1786
▁evacuation	-12.1786
▁faltered	-12.1786
▁fanfare	-12.1786
▁finkelstein	-12.1786
▁frequency	-12.1786
▁halloween	-12.1786
▁handicapped	-12.1786
▁hemorrhaging	-12.1786
▁ignorance	-12.1786
▁inaccurate	-12.1786
▁kuwait	-12.1786
▁manitoba	-12.1786
▁matthews	-12.1786
▁memorandum	-12.1786
▁merchandising	-12.1786
▁milwaukee	-12.1786
▁naczelnik	-12.1786
▁negligence	-12.1786
▁oversubscribed	-12.1786
▁pesetas	-12.1786
▁prerogatives	-12.1786
▁protocol	-12.1786
▁prototype	-12.1786
▁rafale	-12.1786
▁recipients	-12.1786
▁salmonella	-12.1786
▁schaeffer	-12.1786
▁shannon	-12.1786
▁skyrocketed	-12.1786
▁sociologist	-12.1786
▁susceptible	-12.1786
▁chestman	-12.1786
▁iafp	-12.1786
▁impetus	-12.1786
▁infection	-12.1786
▁misconduct	-12.1786
▁acadia	-12.1786
▁fossil	-12.1786
▁gallons	-12.1786
▁laundering	-12.1786
▁corsica	-12.1786
▁denounced	-12.1786
▁madrid	-12.1786
▁shirts	-12.1786
▁aliens	-12.1786
▁fraser	-12.1786
▁limbo	-12.1786
▁premises	-12.1786
▁boveri	-12.1786
▁palace	-12.1786
▁tritium	-12.1786
▁avondale	-12.1786
▁irrelevant	-12.1786
▁musicians	-12.1786
▁championship	-12.1786
▁stimulators	-12.1786
▁teagan	-12.1786
▁vault	-12.1786
ulenc	-12.1786
▁privatized	-12.1786
▁harmony	-12.1786
▁traub	-12.1786
▁salva	-12.1786
▁seldom	-12.1786
▁annuity	-12.1786
▁shelves	-12.1786
▁broderick	-12.1786
▁refineries	-12.1786
▁frightened	-12.1787
▁edgar	-12.1787
▁illusion	-12.1787
▁salvage	-12.1787
▁jackets	-12.1787
▁envy	-12.1787
▁posner	-12.1787
▁respectability	-12.1787
▁arctic	-12.1787
▁craze	-12.1787
▁doomed	-12.1787
▁leaks	-12.1787
▁fabrication	-12.1787
▁gatward	-12.1787
▁bleeding	-12.1787
▁remedy	-12.1787
▁dissent	-12.1787
▁medication	-12.1787
▁pleasure	-12.1787
▁egyptian	-12.1787
▁looms	-12.1787
▁quina	-12.1787
▁blessing	-12.1787
▁civic	-12.1787
▁coordination	-12.1787
▁tramp	-12.1787
▁realities	-12.1788
▁fdic	-12.1788
▁quack	-12.1788
▁traffickers	-12.1788
▁robbed	-12.1788
▁birthday	-12.1788
liberation	-12.1788
▁instrumentation	-12.1788
▁transatlantic	-12.1788
▁petco	-12.1789
▁reoffered	-12.1789
▁awareness	-12.1789
▁burke	-12.1789
▁redevelopment	-12.1789
▁fractionally	-12.1789
▁espn	-12.1789
▁shouting	-12.179
▁vista	-12.179
▁garage	-12.179
▁allowance	-12.179
▁soften	-12.179
▁erupted	-12.179
▁specifications	-12.1791
▁posture	-12.1791
▁outlawed	-12.1791
▁standpoint	-12.1791
▁underestimated	-12.1791
▁monster	-12.1791
▁concentration	-12.1791
▁coordinator	-12.1792
▁outfit	-12.1793
▁communis	-12.1794
▁ann	-12.1794
▁ropes	-12.1794
▁trafficking	-12.1795
orship	-12.1795
▁guardian	-12.1796
▁defenders	-12.1796
serted	-12.1797
▁geography	-12.1798
▁uncle	-12.1798
nition	-12.1798
▁doug	-12.1799
nik	-12.1799
▁avon	-12.1799
▁instruct	-12.18
▁endure	-12.18
cade	-12.18
▁reruns	-12.18
▁dassault	-12.1801
▁sagged	-12.1801
▁respectable	-12.1801
▁modified	-12.1801
▁doyle	-12.1801
▁slim	-12.1801
▁domination	-12.1802
▁basir	-12.1803
▁sheep	-12.1804
▁enthusiast	-12.1804
ame	-12.1804
▁atoms	-12.1805
▁mania	-12.1805
▁motiv	-12.1805
▁attraction	-12.1806
acted	-12.1807
▁leery	-12.1807
▁gang	-12.1809
▁hung	-12.1811
▁fatal	-12.1812
▁stevenson	-12.1814
▁dodd	-12.1814
▁dunes	-12.1815
▁preced	-12.1819
▁electronically	-12.182
▁endangered	-12.1821
ampa	-12.1821
▁binge	-12.1822
▁fool	-12.1822
▁mink	-12.1823
▁whip	-12.1823
▁abolished	-12.1825
▁coates	-12.1827
▁honesty	-12.1828
▁brewery	-12.1828
▁prisoner	-12.1829
▁divisi	-12.183
mlin	-12.1831
▁contemplated	-12.1832
▁fray	-12.1833
▁wedge	-12.1834
▁trademark	-12.1835
scan	-12.1835
▁recycling	-12.1837
▁midyear	-12.1839
vacu	-12.184
▁staging	-12.184
▁dunn	-12.184
▁trimming	-12.1842
tage	-12.1846
▁unloading	-12.1846
▁embarrassed	-12.1847
piration	-12.1848
will	-12.1849
▁bak	-12.1849
▁conspired	-12.1851
▁prope	-12.1851
▁undo	-12.1853
▁addresses	-12.1853
▁curtailed	-12.1853
▁eroded	-12.1855
▁renewal	-12.1856
▁roh	-12.1857
berge	-12.1857
▁disappeared	-12.1865
forman	-12.1867
▁meets	-12.1875
▁taping	-12.1881
ord	-12.1881
▁morale	-12.1883
▁portrayed	-12.1885
▁crushed	-12.1886
▁custo	-12.1889
▁patch	-12.1891
thod	-12.1894
▁atlas	-12.1895
▁chasing	-12.1896
ock	-12.19
▁retreating	-12.1904
▁abused	-12.1904
▁dip	-12.1905
verge	-12.1907
▁refined	-12.1911
▁soda	-12.1912
▁suitable	-12.1913
▁detr	-12.1913
ications	-12.1915
lator	-12.1917
itz	-12.1923
nic	-12.1925
▁incur	-12.1927
▁erod	-12.1927
▁efficiently	-12.1931
▁voter	-12.1931
▁deadly	-12.1932
▁rewarding	-12.1936
▁reti	-12.194
▁gangs	-12.194
▁poorer	-12.194
liner	-12.1941
▁carpeting	-12.1943
kon	-12.1944
ashi	-12.1953
orted	-12.1954
▁jeans	-12.1955
dget	-12.196
istu	-12.196
▁loaded	-12.196
▁seizures	-12.1963
▁crashes	-12.1963
umber	-12.197
▁loser	-12.1972
▁libe	-12.1977
▁obligat	-12.1979
hatch	-12.198
editors	-12.1984
clude	-12.1987
cycling	-12.1987
▁zones	-12.199
▁bullets	-12.1994
nly	-12.1997
▁reins	-12.2003
emia	-12.2004
▁mph	-12.2006
▁associations	-12.2025
▁crystals	-12.2027
▁tenne	-12.204
▁kre	-12.2042
ynth	-12.2043
▁excluded	-12.2051
▁ems	-12.2058
▁defaulted	-12.2062
nta	-12.2063
ione	-12.2071
▁switches	-12.2072
▁refiner	-12.2073
rived	-12.2076
▁suites	-12.2079
dela	-12.2079
▁expe	-12.2084
▁cul	-12.2085
▁statut	-12.2086
▁ric	-12.2095
▁ada	-12.2099
▁fro	-12.2101
▁oils	-12.2105
▁rocket	-12.2113
have	-12.2114
nu	-12.2115
▁morg	-12.213
▁disappears	-12.2146
▁graduates	-12.2153
▁nora	-12.2158
▁mom	-12.2159
ek	-12.2161
▁dep	-12.2162
▁someday	-12.2185
▁privileges	-12.2186
▁supermarkets	-12.2186
oma	-12.2203
▁meh	-12.2209
write	-12.2219
▁appearances	-12.2223
rtific	-12.2225
▁workout	-12.2231
▁weir	-12.2233
▁cy	-12.2249
▁worri	-12.2252
ma	-12.2258
▁listings	-12.2264
▁norw	-12.2282
▁drawings	-12.2288
ming	-12.2293
hita	-12.2294
elin	-12.23
▁explosi	-12.2307
sm	-12.2317
▁rocked	-12.2327
self	-12.2331
aren	-12.2332
▁await	-12.2337
▁bla	-12.2345
▁borders	-12.2345
▁deficienc	-12.2346
▁physics	-12.2355
solv	-12.2356
▁jer	-12.2362
▁lu	-12.2365
consolidate	-12.2383
morning	-12.2388
▁violent	-12.2405
▁duo	-12.2406
▁pose	-12.2407
▁gu	-12.2411
▁cry	-12.2418
▁jets	-12.2424
▁redemptions	-12.2439
▁cree	-12.2447
emen	-12.2448
bes	-12.2455
▁burning	-12.2457
▁flags	-12.248
▁accelerati	-12.2481
▁truste	-12.2483
▁legislatures	-12.2503
rising	-12.2506
▁hamm	-12.2519
equivalent	-12.2538
eater	-12.254
▁reinvest	-12.2547
▁arbitra	-12.2554
ners	-12.2565
▁cas	-12.2572
▁hil	-12.2574
▁architectur	-12.2574
▁averages	-12.2581
style	-12.2581
ding	-12.2589
eath	-12.2601
▁pros	-12.2604
hes	-12.2615
▁younge	-12.2627
▁spec	-12.2639
▁republics	-12.2655
nform	-12.266
▁ken	-12.2672
▁mad	-12.2681
▁hom	-12.2686
duci	-12.2689
tel	-12.2691
our	-12.2707
▁brains	-12.271
ssett	-12.271
▁connect	-12.2711
tended	-12.2712
▁terri	-12.2727
▁contin	-12.2731
nkers	-12.2736
▁compani	-12.2747
▁editions	-12.2758
scru	-12.2764
beat	-12.2774
company	-12.2776
▁po	-12.2784
▁den	-12.2786
opted	-12.2798
▁trapped	-12.28
▁chairm	-12.2801
▁boes	-12.2801
▁plu	-12.2805
carbon	-12.2812
▁holidays	-12.2815
▁conservati	-12.2831
▁closings	-12.2831
▁faste	-12.2833
gible	-12.2841
guy	-12.2865
▁connections	-12.2882
nprofit	-12.2899
unch	-12.2914
▁sear	-12.292
▁bee	-12.2921
ller	-12.2924
▁harr	-12.2945
▁autos	-12.2949
▁matche	-12.2966
▁walters	-12.2971
▁alt	-12.2971
ac	-12.2976
consolidat	-12.2983
lub	-12.3
nkin	-12.3007
▁notable	-12.301
▁ju	-12.3035
▁aw	-12.3039
▁recessions	-12.3039
▁lan	-12.3047
macy	-12.3047
cart	-12.3051
▁pons	-12.3054
▁northe	-12.3076
licate	-12.3086
▁greed	-12.3104
4-	-12.3109
dressed	-12.3117
▁objecti	-12.3125
dual	-12.3141
licit	-12.3147
▁productive	-12.3155
lesti	-12.317
ips	-12.3176
▁anticipati	-12.321
▁sid	-12.3219
▁carolinas	-12.3221
doubt	-12.3245
▁technolog	-12.3254
▁resolutions	-12.3258
rdin	-12.3258
▁caller	-12.3264
tted	-12.3283
▁mos	-12.3293
anni	-12.3301
▁distribut	-12.3317
esso	-12.3323
▁exp	-12.3343
▁shap	-12.3349
▁oas	-12.3352
▁neg	-12.3366
lvani	-12.337
colla	-12.3382
dents	-12.3401
new	-12.3412
▁fronts	-12.3442
▁coups	-12.3444
eck	-12.346
▁motive	-12.3464
rner	-12.3473
hai	-12.3483
▁que	-12.3488
▁vo	-12.3496
mall	-12.3502
conne	-12.3508
▁hell	-12.353
▁feat	-12.3535
ished	-12.3557
sters	-12.3565
killed	-12.3578
▁cub	-12.3606
▁occasion	-12.3609
▁min	-12.3612
▁speeds	-12.3618
▁vessel	-12.3618
▁negotiator	-12.3622
power	-12.3624
▁olympic	-12.3626
▁instruction	-12.3626
▁shipment	-12.3629
upert	-12.3637
▁portra	-12.3638
▁performer	-12.3668
anke	-12.3668
ung	-12.3679
▁mit	-12.3682
▁manufactur	-12.369
▁schedul	-12.3702
▁sigh	-12.3705
outh	-12.3709
▁carr	-12.3716
ceptive	-12.372
vati	-12.3726
▁recycl	-12.3732
▁roles	-12.374
▁finn	-12.3744
▁patien	-12.3744
▁endanger	-12.3747
▁inventor	-12.3752
agan	-12.376
mend	-12.3761
▁revise	-12.3763
▁define	-12.3765
▁solv	-12.3765
▁celebrati	-12.3778
rupted	-12.3781
▁egypt	-12.3785
▁alabama	-12.3786
▁amortization	-12.3786
▁bizarre	-12.3786
▁bozell	-12.3786
▁celebrity	-12.3786
▁commerzbank	-12.3786
▁leipzig	-12.3786
▁namibia	-12.3786
▁peninsula	-12.3786
▁plumbing	-12.3786
▁refrigerators	-12.3786
▁resilience	-12.3786
▁sloppy	-12.3786
▁subdued	-12.3786
▁turnpike	-12.3786
▁incredible	-12.3786
▁libya	-12.3786
▁negligible	-12.3786
▁nonsense	-12.3786
▁parsow	-12.3786
▁legitimacy	-12.3786
▁decisive	-12.3786
▁uneasy	-12.3787
▁deliberations	-12.3787
▁unstable	-12.3787
▁translation	-12.3787
▁recital	-12.3787
▁novelist	-12.3788
▁aborted	-12.3788
▁cocaine	-12.3789
▁entrepreneurial	-12.379
▁okla	-12.379
▁managua	-12.3792
▁competitiveness	-12.3792
fford	-12.3794
▁flom	-12.3795
gence	-12.3796
▁neutral	-12.3798
▁benton	-12.38
▁disclos	-12.38
anning	-12.3802
▁doubtful	-12.3806
▁runway	-12.3806
▁wooden	-12.3807
rett	-12.3811
caster	-12.3815
▁greedy	-12.3817
gration	-12.3818
▁revol	-12.382
▁bail	-12.3822
▁coin	-12.3824
▁southmark	-12.383
▁reinvested	-12.3833
▁rode	-12.3834
▁lobb	-12.3836
▁jeopardy	-12.3838
▁predictably	-12.3843
urse	-12.3851
▁pete	-12.3862
▁domestically	-12.3863
▁rear	-12.3872
turb	-12.3896
nior	-12.3899
idential	-12.3904
▁outsider	-12.3906
▁concert	-12.3916
▁warehouses	-12.3926
imb	-12.3934
drum	-12.3943
▁tightly	-12.3946
▁wasted	-12.3947
▁balloting	-12.3954
rgu	-12.3956
▁environments	-12.3958
▁strengths	-12.3962
brie	-12.3976
ance	-12.398
▁frustrating	-12.3981
span	-12.3985
ribe	-12.3993
ledg	-12.3998
okes	-12.4008
loud	-12.4008
artner	-12.4018
amir	-12.4028
▁watche	-12.4042
▁permissi	-12.4047
▁bas	-12.4053
▁bureaus	-12.4054
▁manu	-12.4056
▁cli	-12.4059
▁shifts	-12.406
▁sim	-12.4066
cting	-12.4073
▁beg	-12.4075
▁retr	-12.4083
▁subordinates	-12.4085
▁compos	-12.4088
ieve	-12.41
▁kell	-12.4121
eviat	-12.4128
▁tag	-12.4136
▁thu	-12.4137
▁loa	-12.4137
▁barne	-12.4151
inger	-12.4156
lum	-12.4164
▁format	-12.4174
ning	-12.4176
▁cubans	-12.4198
aging	-12.4214
▁rage	-12.4227
▁ton	-12.4237
▁backgrounds	-12.4282
lies	-12.4286
oc	-12.4289
other	-12.4291
▁receiver	-12.4293
sisted	-12.4294
▁corporat	-12.4309
▁chu	-12.4324
usan	-12.4329
▁reflecti	-12.4373
▁fr	-12.4376
essel	-12.4383
eb	-12.4387
▁digs	-12.4394
▁conclusions	-12.44
ngton	-12.44
▁hol	-12.4411
▁conf	-12.442
anc	-12.442
▁rout	-12.4424
anker	-12.443
andle	-12.4459
compet	-12.4463
dering	-12.4465
▁folk	-12.4467
elve	-12.4469
ls	-12.4475
▁tail	-12.4477
▁aba	-12.448
▁mice	-12.4533
ea	-12.4548
▁reads	-12.4556
▁soul	-12.4578
erch	-12.4585
▁processe	-12.4588
quin	-12.4591
▁ind	-12.4605
▁focuse	-12.4608
▁heavie	-12.4624
icken	-12.4665
val	-12.4665
uted	-12.467
art	-12.4687
egory	-12.4692
fortunate	-12.4693
▁committ	-12.4697
▁callable	-12.4707
urb	-12.4738
▁emi	-12.4739
fen	-12.4765
arlie	-12.478
▁financings	-12.4794
▁kat	-12.4803
▁sens	-12.4806
▁emergenc	-12.4811
lvin	-12.4816
mpan	-12.4842
pu	-12.4843
▁tu	-12.4854
ullin	-12.4863
▁alb	-12.4866
appointed	-12.4878
rli	-12.4879
room	-12.4889
▁centur	-12.4907
▁adj	-12.4915
ird	-12.494
runk	-12.4945
isc	-12.4956
ady	-12.4967
▁rub	-12.498
asset	-12.4999
lm	-12.5005
ath	-12.5011
anton	-12.5013
▁orderly	-12.5039
etch	-12.504
last	-12.5041
tired	-12.5075
phis	-12.5095
alley	-12.5102
▁freed	-12.5106
amp	-12.512
oro	-12.5123
minal	-12.5127
▁justices	-12.5129
▁lett	-12.5129
ttle	-12.5138
▁forth	-12.5148
terson	-12.5179
tly	-12.5197
float	-12.5206
ipped	-12.5211
rog	-12.5246
▁pil	-12.5264
▁sav	-12.5266
bri	-12.5276
cia	-12.5282
▁searche	-12.53
terpi	-12.5326
▁adver	-12.5333
▁ris	-12.5343
cow	-12.5344
inna	-12.535
race	-12.5367
stated	-12.5367
▁eth	-12.5373
cted	-12.5379
▁wis	-12.5391
▁totals	-12.54
▁taxed	-12.54
▁defenses	-12.541
▁ai	-12.5416
▁intens	-12.5428
liver	-12.5433
ports	-12.5433
▁pois	-12.5451
▁thoughts	-12.5464
ilab	-12.5472
▁ri	-12.5484
appearance	-12.552
▁edu	-12.5541
ffe	-12.555
eat	-12.5572
▁rubi	-12.5575
reak	-12.5583
rds	-12.564
▁professors	-12.5643
▁unity	-12.5654
ophi	-12.5673
▁fas	-12.5683
▁ero	-12.5688
ro	-12.569
which	-12.57
▁dd	-12.5711
eemed	-12.5723
▁impli	-12.5724
iversity	-12.574
ger	-12.5747
▁inch	-12.5756
ume	-12.5768
ozen	-12.5813
▁assur	-12.5826
▁severa	-12.5826
this	-12.5844
gatt	-12.5847
oned	-12.5855
profit	-12.5856
▁fai	-12.5869
scu	-12.587
▁val	-12.5874
nwa	-12.5901
coup	-12.5902
▁zo	-12.5905
vy	-12.5929
would	-12.5929
▁translat	-12.5931
via	-12.5949
nio	-12.5978
lacks	-12.5995
▁res	-12.5996
br	-12.6
ega	-12.6009
legally	-12.6016
hang	-12.6018
urt	-12.6032
ida	-12.6033
▁numbered	-12.6035
pression	-12.604
▁seniors	-12.6079
ggs	-12.6086
▁warehouse	-12.6109
▁plaintiff	-12.6117
undan	-12.6138
▁advertiser	-12.6139
▁prediction	-12.6149
▁swe	-12.6151
▁edw	-12.6152
▁rea	-12.6173
▁demonstrat	-12.6213
tions	-12.6237
▁plummet	-12.6249
ban	-12.626
▁notif	-12.6268
act	-12.6272
▁drastic	-12.6284
▁aeroflot	-12.6286
▁chaotic	-12.6286
▁headaches	-12.6286
▁dillon	-12.6287
▁influ	-12.6287
▁equation	-12.6288
▁arou	-12.6296
cou	-12.6314
ussi	-12.6317
▁profitably	-12.6328
▁hir	-12.6361
arb	-12.6367
▁massage	-12.6397
mbo	-12.6409
eged	-12.6414
randa	-12.6424
tt	-12.6434
ass	-12.6439
▁imm	-12.644
▁char	-12.6441
about	-12.6442
lation	-12.6452
▁puni	-12.6455
ks	-12.6458
hnic	-12.6467
ps	-12.6474
rish	-12.6504
▁wel	-12.6529
rows	-12.6541
▁examin	-12.6557
ansa	-12.6576
▁norma	-12.6587
weat	-12.6589
rama	-12.6614
▁fol	-12.6619
lind	-12.6631
termed	-12.6642
▁beth	-12.6643
tri	-12.6657
rich	-12.6668
▁besi	-12.6682
▁hasti	-12.6717
ee	-12.6723
arts	-12.6759
▁workings	-12.6778
ware	-12.6807
▁arter	-12.6816
tom	-12.6823
ided	-12.685
hief	-12.6851
itan	-12.6854
▁blues	-12.6869
▁ari	-12.6871
erson	-12.6897
ctic	-12.69
ught	-12.6903
thr	-12.6914
▁behav	-12.6917
▁technologi	-12.6944
▁hu	-12.6946
▁fri	-12.6978
heir	-12.7023
une	-12.7024
▁employe	-12.7032
armon	-12.7035
white	-12.7037
▁terr	-12.7122
ds	-12.7157
saul	-12.717
essed	-12.7217
ential	-12.7234
odu	-12.7236
ins	-12.724
ments	-12.7253
rt	-12.7253
▁educat	-12.7277
rat	-12.7297
orer	-12.7304
▁predictabl	-12.7328
phone	-12.7359
▁les	-12.736
itali	-12.7384
▁magni	-12.7385
▁accords	-12.7439
▁nin	-12.744
eth	-12.7445
niversa	-12.7447
sta	-12.7458
▁im	-12.7467
pare	-12.7472
▁commons	-12.7494
tual	-12.7495
ailed	-12.75
▁creati	-12.752
▁cred	-12.7523
▁attac	-12.7565
rip	-12.7567
▁dro	-12.7571
mmi	-12.7601
nerable	-12.7616
oph	-12.7619
▁prints	-12.7628
gaining	-12.7633
▁intensi	-12.7637
▁dela	-12.766
orgi	-12.7664
ravel	-12.7673
says	-12.7674
▁medic	-12.7678
orry	-12.7686
▁royalt	-12.7702
▁mas	-12.7707
▁unifi	-12.7754
lor	-12.7756
aving	-12.7757
▁shor	-12.7762
eig	-12.7772
ploye	-12.7777
▁ro	-12.7787
aver	-12.7793
were	-12.7798
sp	-12.7886
▁bat	-12.7888
uting	-12.789
osses	-12.7913
▁closes	-12.7934
uck	-12.7938
▁ark	-12.7973
ggest	-12.7979
coast	-12.7999
▁reli	-12.8007
▁bene	-12.807
ned	-12.8096
pper	-12.8109
ific	-12.8167
ican	-12.8241
▁hut	-12.8261
elf	-12.8261
▁cara	-12.8276
ainst	-12.8279
nza	-12.8282
hs	-12.8324
erre	-12.8337
ebates	-12.836
ink	-12.8361
hed	-12.8379
voke	-12.8382
▁examples	-12.8462
qui	-12.8465
▁emer	-12.8474
dem	-12.8493
gu	-12.8494
▁lip	-12.8534
ediat	-12.8563
▁beings	-12.8579
▁cit	-12.8587
ria	-12.8601
setting	-12.8619
their	-12.862
▁diversi	-12.8624
bre	-12.8629
pt	-12.8629
▁cont	-12.863
etical	-12.8635
employ	-12.8638
inking	-12.8659
sight	-12.8668
mally	-12.8674
roadway	-12.8674
ennis	-12.8685
▁unus	-12.8747
ndem	-12.8757
▁gener	-12.8768
gle	-12.8781
▁sy	-12.8834
ttled	-12.8837
▁tha	-12.8863
ooking	-12.8873
arned	-12.8942
▁spu	-12.899
dying	-12.8996
employe	-12.9001
urry	-12.9012
tude	-12.9012
arly	-12.9026
▁passi	-12.9059
▁looming	-12.9066
cter	-12.9078
▁trusts	-12.915
wart	-12.9183
▁undertak	-12.9199
sul	-12.9213
sured	-12.924
kf	-12.9249
ano	-12.9258
aged	-12.926
▁deliveri	-12.9267
▁ted	-12.9279
abo	-12.9284
▁ok	-12.9293
tional	-12.932
umb	-12.9322
liv	-12.9343
▁conv	-12.9348
▁mea	-12.9373
fined	-12.9389
ommod	-12.9406
smo	-12.9413
▁ink	-12.9418
ix	-12.9447
torial	-12.9451
▁passe	-12.947
nes	-12.9481
sell	-12.9487
gee	-12.9492
▁unl	-12.9559
ility	-12.9562
lli	-12.9565
▁geograph	-12.9594
akes	-12.9598
pil	-12.9604
▁elephant	-12.9619
▁dicta	-12.9619
ub	-12.9623
equeste	-12.963
ating	-12.9636
▁ko	-12.964
▁certifi	-12.9643
my	-12.9646
▁tes	-12.9651
who	-12.9653
rof	-12.9678
nnel	-12.9718
aff	-12.9728
▁racke	-12.974
had	-12.9743
oge	-12.9756
▁ups	-12.9776
rial	-12.978
ast	-12.9785
not	-12.9845
layoffs	-12.985
pplies	-12.9891
equest	-12.9901
▁sus	-12.9902
ovi	-12.9909
trig	-12.9913
rmed	-12.9967
ncou	-12.9971
▁eco	-12.9976
▁sham	-12.9998
umbe	-13.0005
▁restructurings	-13.0018
eh	-13.0027
ery	-13.0034
ga	-13.0073
▁tou	-13.0081
sed	-13.009
di	-13.0108
rink	-13.0152
▁cheape	-13.0174
ess	-13.0192
owe	-13.0224
oke	-13.0224
ties	-13.0229
▁intr	-13.023
▁radi	-13.0239
urges	-13.0239
ace	-13.0263
etal	-13.0284
ec	-13.0291
▁applie	-13.0292
been	-13.033
▁necess	-13.036
anto	-13.0382
▁audi	-13.0387
epression	-13.0403
till	-13.0424
hwart	-13.0433
arrow	-13.0445
ophe	-13.0447
stin	-13.0463
site	-13.0471
andles	-13.0491
trad	-13.0507
cked	-13.0538
orti	-13.0549
▁administrat	-13.0556
gain	-13.0576
igu	-13.0591
enters	-13.0621
mir	-13.0647
einh	-13.0661
▁spen	-13.0666
▁miner	-13.0684
nth	-13.0684
aw	-13.071
▁esse	-13.0727
inc	-13.0756
lte	-13.0779
mann	-13.0791
▁cr	-13.0804
rvin	-13.0829
▁cente	-13.0858
▁legislat	-13.0876
affe	-13.0895
▁stag	-13.0917
rent	-13.0974
eland	-13.0975
ored	-13.0997
onto	-13.1005
stance	-13.1008
mal	-13.1025
▁gou	-13.1032
nim	-13.1051
reed	-13.1066
▁ci	-13.107
cru	-13.1073
▁illustrat	-13.1076
erger	-13.1089
▁dat	-13.1101
▁pen	-13.1153
sit	-13.1158
pane	-13.1158
ecision	-13.1161
cludes	-13.1167
ivid	-13.1175
ncent	-13.1181
▁dol	-13.1197
irs	-13.121
▁fortun	-13.1251
tson	-13.127
pill	-13.132
▁bru	-13.1352
▁ala	-13.1365
nator	-13.1374
ight	-13.1391
▁regist	-13.1403
ason	-13.1405
now	-13.1415
asb	-13.1427
▁ap	-13.1429
imer	-13.1459
presents	-13.1467
nair	-13.1479
trong	-13.1496
ystems	-13.1536
▁controlle	-13.1545
wo	-13.1585
cribe	-13.159
hunt	-13.1602
▁ally	-13.1605
▁sentenc	-13.162
▁pate	-13.166
peal	-13.1661
nz	-13.1666
▁ami	-13.1684
▁ow	-13.1728
nable	-13.1731
cedes	-13.1743
▁ste	-13.1745
rell	-13.1748
oil	-13.1758
▁dre	-13.1775
uis	-13.1833
anda	-13.185
apt	-13.1855
▁dra	-13.189
pointing	-13.1971
ove	-13.1987
▁basi	-13.2013
ens	-13.2029
jami	-13.2035
president	-13.2087
itional	-13.2171
▁minis	-13.2207
rg	-13.221
gai	-13.2277
▁tan	-13.228
▁aust	-13.2311
supp	-13.2315
active	-13.2318
pert	-13.2324
▁welc	-13.2373
ncy	-13.238
amaic	-13.2384
ow	-13.2407
estin	-13.241
▁distin	-13.2411
ked	-13.2438
ang	-13.2443
eling	-13.2482
acker	-13.2483
ended	-13.2515
ploy	-13.2556
arle	-13.2563
two	-13.2575
▁clas	-13.2583
vigo	-13.259
▁subs	-13.2597
▁switche	-13.2606
ends	-13.2618
ded	-13.2628
try	-13.2668
yen	-13.2683
russel	-13.2752
cy	-13.2778
▁ens	-13.2784
uber	-13.2796
efs	-13.2803
pet	-13.2835
▁confi	-13.2851
▁compan	-13.2871
sea	-13.2966
oes	-13.2975
che	-13.2976
▁exi	-13.3056
▁containe	-13.3083
ten	-13.3124
▁toy	-13.3131
▁statu	-13.3133
▁lon	-13.3134
▁excit	-13.3208
tched	-13.3227
sup	-13.3241
gan	-13.3244
lunt	-13.3249
titute	-13.3263
▁ji	-13.3274
hears	-13.3305
ure	-13.332
fter	-13.3346
▁prec	-13.3349
shares	-13.3349
osion	-13.3366
▁dut	-13.3389
su	-13.3393
ssy	-13.3418
stones	-13.3443
▁persi	-13.3452
nsure	-13.348
helps	-13.3485
iologi	-13.3511
▁lau	-13.3519
▁excite	-13.3523
when	-13.3537
▁seve	-13.3538
▁bets	-13.354
ina	-13.3545
first	-13.3732
▁clou	-13.3776
▁precis	-13.3801
▁terminat	-13.3803
tory	-13.3809
aked	-13.3821
lid	-13.3827
▁skill	-13.3864
after	-13.3885
xer	-13.3916
times	-13.3926
dill	-13.3933
years	-13.3949
▁mcd	-13.3961
dd	-13.3972
ova	-13.3995
nationally	-13.4024
hook	-13.4046
▁ages	-13.4061
dol	-13.4064
rrible	-13.407
bst	-13.4075
ordinate	-13.4095
ief	-13.4138
uters	-13.4185
firmed	-13.4192
▁interven	-13.4206
ambr	-13.4251
▁contr	-13.4296
▁regi	-13.4348
▁likel	-13.4354
pate	-13.4362
only	-13.4369
▁corps	-13.4389
ai	-13.4389
udi	-13.445
otel	-13.4453
ior	-13.4469
▁impe	-13.4512
▁jun	-13.4589
▁minimills	-13.462
ence	-13.4627
uce	-13.4639
ear	-13.4641
▁lenses	-13.4663
mounted	-13.4667
could	-13.4671
sales	-13.4694
nk	-13.47
▁disc	-13.4702
▁reas	-13.4732
ements	-13.474
bis	-13.4741
iss	-13.4746
▁tex	-13.4794
rtz	-13.4841
ption	-13.4845
fice	-13.4917
imit	-13.4952
yman	-13.4965
pened	-13.4967
peat	-13.4997
ala	-13.5019
▁shou	-13.5038
stration	-13.5042
atel	-13.505
▁ft	-13.5152
kla	-13.5215
▁competi	-13.5224
lab	-13.5227
patch	-13.5275
ckle	-13.5275
sat	-13.5315
table	-13.5323
ickers	-13.5353
▁fer	-13.5385
os	-13.5402
ssis	-13.5409
unting	-13.5416
ifi	-13.5443
▁subscri	-13.548
there	-13.5481
▁fort	-13.551
epo	-13.5513
ared	-13.5531
mfor	-13.5569
dono	-13.5571
og	-13.5592
rage	-13.5597
▁weake	-13.5643
ivers	-13.5649
bot	-13.5693
tchin	-13.5698
▁mons	-13.5713
tu	-13.5735
hur	-13.5744
▁prepa	-13.5759
▁comm	-13.576
nspired	-13.5761
▁participat	-13.5774
aded	-13.5819
ush	-13.5847
iling	-13.585
▁implie	-13.5903
ings	-13.5903
sor	-13.5921
vs	-13.5935
ug	-13.5939
many	-13.5945
ncr	-13.5949
eric	-13.5957
res	-13.5967
rnal	-13.597
▁lea	-13.6026
scription	-13.6051
ange	-13.6082
.-	-13.6171
ag	-13.6171
aster	-13.6186
▁importe	-13.6191
alo	-13.6201
bag	-13.6251
cil	-13.6274
lan	-13.6284
db	-13.6307
▁critici	-13.6314
▁sits	-13.6348
▁consequen	-13.6349
low	-13.6393
lice	-13.642
smal	-13.6424
▁licens	-13.6468
▁exte	-13.6471
lish	-13.6486
ff	-13.6488
anne	-13.6488
uing	-13.6515
iming	-13.6545
ppears	-13.6551
▁boug	-13.6552
government	-13.6564
▁hond	-13.6569
fer	-13.6591
ems	-13.6605
▁ham	-13.6614
▁corne	-13.6639
▁backe	-13.6687
ids	-13.6711
rowing	-13.6735
ghes	-13.6811
such	-13.6823
con	-13.6872
ran	-13.6881
▁incomes	-13.6916
▁gat	-13.6938
york	-13.6944
stat	-13.6948
▁institut	-13.6981
llin	-13.701
unt	-13.7029
va	-13.7059
af	-13.7191
companies	-13.7265
alco	-13.7281
unit	-13.7306
ased	-13.7306
naut	-13.7314
mire	-13.7316
dust	-13.7322
ire	-13.7329
▁misse	-13.7352
oration	-13.7373
federal	-13.7374
ratio	-13.7386
usted	-13.7395
hu	-13.7449
enfo	-13.7495
▁promoti	-13.75
▁ig	-13.7514
ived	-13.7524
into	-13.7548
may	-13.7561
▁wildl	-13.7576
▁controll	-13.7591
tr	-13.7606
▁heir	-13.7684
▁sever	-13.7688
ease	-13.7712
tled	-13.772
han	-13.7733
uard	-13.7754
ura	-13.7772
oney	-13.7783
while	-13.7817
▁sagg	-13.7841
hell	-13.7849
sel	-13.7868
ye	-13.7905
▁swee	-13.7916
▁perce	-13.7933
ot	-13.7942
▁cf	-13.7946
tone	-13.7998
▁spi	-13.8039
za	-13.8067
▁arro	-13.8076
hr	-13.8122
nobl	-13.8128
▁brig	-13.813
▁opti	-13.8149
pile	-13.8161
eeling	-13.8168
▁tit	-13.8181
sees	-13.829
▁cal	-13.8336
▁wid	-13.8349
▁amend	-13.8353
aring	-13.8354
cations	-13.8365
ind	-13.8369
▁modifi	-13.8373
lose	-13.8374
under	-13.8375
▁termina	-13.8451
caus	-13.8454
tened	-13.8472
▁comb	-13.8475
longe	-13.848
ecent	-13.8482
▁cla	-13.8505
las	-13.8534
▁fore	-13.855
ferred	-13.8575
people	-13.8628
erick	-13.863
zi	-13.8675
gus	-13.8751
▁vin	-13.8765
bin	-13.8778
lico	-13.8792
pter	-13.8828
rod	-13.8833
oking	-13.8841
rim	-13.8875
ravele	-13.8881
reating	-13.8915
she	-13.8916
ray	-13.8967
rtin	-13.9005
iko	-13.903
▁rus	-13.906
amil	-13.9066
rade	-13.9122
▁frie	-13.9123
▁respons	-13.914
cents	-13.9153
what	-13.9205
investors	-13.9267
unti	-13.9304
▁bot	-13.9318
rer	-13.9338
bros	-13.9348
▁arbitrat	-13.9349
llo	-13.9363
mitted	-13.9408
ization	-13.9439
ep	-13.9504
rum	-13.9528
▁informa	-13.954
take	-13.9542
ists	-13.9578
urs	-13.96
gl	-13.9603
repaid	-13.9644
tified	-13.9647
uts	-13.9678
prices	-13.9697
▁surgi	-13.9716
▁heavi	-13.9725
see	-13.9742
funding	-13.9772
▁indict	-13.9781
ering	-13.979
tlantic	-13.9793
onner	-13.9796
au	-13.9808
nner	-13.9904
▁pur	-13.9947
ging	-13.9979
yesterday	-13.9982
row	-13.9982
securities	-14
les	-14.0066
vid	-14.0093
nfel	-14.0103
hy	-14.0116
par	-14.0117
rlin	-14.0133
▁topi	-14.019
late	-14.0216
fi	-14.0245
ane	-14.0274
alty	-14.0276
lu	-14.0284
▁ye	-14.0366
▁depr	-14.0422
nstitute	-14.0427
custome	-14.0556
dall	-14.0602
special	-14.064
rm	-14.0656
enf	-14.0697
▁buffe	-14.0713
▁tel	-14.0755
bu	-14.0759
▁unil	-14.0818
▁hat	-14.0835
ber	-14.0838
crui	-14.0841
ssion	-14.0856
change	-14.0859
cumulat	-14.0946
just	-14.0956
rch	-14.0958
ically	-14.0986
nc	-14.0991
uffer	-14.1025
olm	-14.1061
you	-14.1066
ilt	-14.107
three	-14.1073
▁conver	-14.1074
▁cu	-14.1107
▁stri	-14.1133
▁gio	-14.1141
months	-14.1183
duc	-14.1187
tan	-14.1275
cem	-14.1279
pared	-14.1309
▁op	-14.1375
nda	-14.1412
kur	-14.1417
cable	-14.1428
ffer	-14.1448
financial	-14.1503
cr	-14.1541
oy	-14.1546
unk	-14.1558
again	-14.1563
ort	-14.1578
note	-14.1579
moving	-14.1587
▁confe	-14.1611
through	-14.1627
▁thre	-14.1632
erman	-14.1651
cutt	-14.1692
ushed	-14.1715
much	-14.1721
aten	-14.173
emporary	-14.1757
riers	-14.1769
make	-14.1787
say	-14.1798
lla	-14.1812
brica	-14.188
wed	-14.1922
american	-14.1933
tie	-14.1945
▁selecti	-14.2001
bins	-14.2001
▁servi	-14.206
ead	-14.206
ody	-14.2071
cus	-14.2085
olar	-14.2103
efore	-14.2106
scr	-14.2109
buy	-14.2152
▁insiste	-14.2166
chairman	-14.2181
▁investigati	-14.2209
gained	-14.2277
aria	-14.2361
▁narrowe	-14.2382
lac	-14.2393
▁deu	-14.2429
located	-14.2463
phi	-14.2485
nated	-14.2535
program	-14.2552
ected	-14.2559
osed	-14.2559
▁theirs	-14.2567
bility	-14.2571
mp	-14.2581
easing	-14.2608
industry	-14.2675
rts	-14.2688
orman	-14.2718
next	-14.2727
urve	-14.2781
leo	-14.2826
edding	-14.2865
major	-14.2948
dan	-14.3067
them	-14.3088
iv	-14.3149
did	-14.3207
big	-14.3233
quebec	-14.3246
ued	-14.3247
isting	-14.3274
rates	-14.3297
ights	-14.3317
ett	-14.3342
▁fet	-14.3348
etta	-14.3465
▁ut	-14.35
umm	-14.3568
niv	-14.357
oyalty	-14.3631
ike	-14.3643
omer	-14.3677
ttered	-14.372
officials	-14.3761
tate	-14.3815
ounced	-14.3832
fairly	-14.388
▁delic	-14.3889
hair	-14.393
▁appropriat	-14.3988
iver	-14.3999
▁contrac	-14.4004
▁wy	-14.4013
ars	-14.4013
money	-14.4108
before	-14.4143
scow	-14.4146
▁conso	-14.4206
stocks	-14.4229
▁relati	-14.4254
ecommunications	-14.4286
since	-14.4335
ested	-14.4355
tand	-14.439
let	-14.4402
urning	-14.4417
ontinued	-14.4454
ama	-14.4522
ense	-14.4525
ounting	-14.4553
cie	-14.457
ansion	-14.4574
older	-14.4624
mers	-14.4634
du	-14.4643
▁abs	-14.4658
cision	-14.4662
▁nea	-14.4663
resident	-14.467
analysts	-14.4696
boy	-14.4703
eni	-14.4741
ledged	-14.4822
ged	-14.4832
hough	-14.4851
tensive	-14.4866
high	-14.4888
dur	-14.4914
ntly	-14.4945
rcel	-14.5002
▁berli	-14.5031
tract	-14.5034
▁brin	-14.5036
illing	-14.5069
eptive	-14.5114
pre	-14.5117
phen	-14.5144
▁revo	-14.5161
▁cha	-14.5267
plan	-14.5322
japanese	-14.5326
▁supporte	-14.537
dle	-14.5396
ovision	-14.54
mber	-14.5424
compete	-14.543
▁reco	-14.5487
eferred	-14.5501
overn	-14.5502
covered	-14.5523
anging	-14.5529
tta	-14.554
firm	-14.5554
owing	-14.5556
made	-14.5611
▁bou	-14.5644
chin	-14.5702
ken	-14.5706
rre	-14.5715
▁colla	-14.5756
ngu	-14.5784
▁vit	-14.5788
ail	-14.5829
rried	-14.5865
enn	-14.5941
tness	-14.5989
umi	-14.6022
veraged	-14.6066
shu	-14.6067
leb	-14.6139
public	-14.615
rest	-14.6179
▁acco	-14.6226
between	-14.6233
bust	-14.6301
lower	-14.6319
nzo	-14.6379
chi	-14.6393
toma	-14.6453
dro	-14.6471
gs	-14.6492
rous	-14.6504
▁fir	-14.6574
▁highl	-14.6579
▁genera	-14.6588
ple	-14.6626
oyer	-14.6654
international	-14.6691
born	-14.6708
▁bow	-14.6712
tbacks	-14.6767
▁stre	-14.6814
live	-14.6838
gio	-14.6841
eith	-14.6849
▁pic	-14.6874
revenue	-14.6911
▁smalle	-14.6942
average	-14.6957
world	-14.6989
vat	-14.6993
congress	-14.6999
noon	-14.702
days	-14.7042
aq	-14.7046
accord	-14.7089
work	-14.71
general	-14.7133
recent	-14.7171
▁ado	-14.7173
▁cel	-14.7286
hb	-14.7336
fied	-14.7348
does	-14.7361
funds	-14.7409
atta	-14.748
eased	-14.7522
mmod	-14.7557
edes	-14.7614
ou	-14.7647
woo	-14.7714
sc	-14.7826
cording	-14.7861
inland	-14.7877
custom	-14.7891
rise	-14.7902
▁stat	-14.7919
inning	-14.7926
ssed	-14.793
marke	-14.8007
sive	-14.8031
both	-14.8043
ntum	-14.8083
dman	-14.8143
should	-14.8165
▁kr	-14.8193
seque	-14.8234
▁conse	-14.8238
reported	-14.8243
cken	-14.8249
another	-14.828
mia	-14.8297
markets	-14.8349
eman	-14.8356
ression	-14.8412
rrespon	-14.8442
includ	-14.8508
hit	-14.8537
lowing	-14.8557
uses	-14.8598
coll	-14.8608
des	-14.8609
▁amb	-14.8642
ram	-14.8686
hei	-14.8726
adil	-14.8739
higher	-14.8869
department	-14.8912
als	-14.8938
dly	-14.8972
▁fli	-14.9021
nies	-14.9032
ounded	-14.9061
offer	-14.9062
operations	-14.907
lume	-14.9093
japan	-14.9138
thing	-14.9141
▁capitaliz	-14.915
wor	-14.9153
gist	-14.9183
search	-14.9208
dent	-14.9223
evi	-14.923
ells	-14.9306
fit	-14.9307
cutive	-14.9317
▁mot	-14.9343
foreign	-14.9426
tuck	-14.9428
rlie	-14.945
▁typ	-14.9461
economic	-14.9471
ics	-14.9474
▁reac	-14.9522
fel	-14.9549
eme	-14.9574
pay	-14.96
alk	-14.9604
▁negl	-14.965
lines	-14.9654
total	-14.9677
iced	-14.9793
chase	-14.9815
tag	-14.9843
gin	-14.9859
nship	-14.9898
tistic	-14.9905
nally	-14.9907
nny	-14.998
gic	-15.0001
debt	-15.0033
trade	-15.0051
tat	-15.0054
bid	-15.0084
othe	-15.0109
bed	-15.0115
▁seri	-15.0133
▁bor	-15.0143
earns	-15.0146
rit	-15.0154
however	-15.0154
system	-15.0165
earing	-15.0191
omet	-15.0222
large	-15.0228
good	-15.025
ania	-15.0251
lling	-15.0281
nest	-15.0295
rl	-15.0305
certain	-15.0332
common	-15.0402
maker	-15.0405
eries	-15.0432
increase	-15.0441
ewer	-15.0544
report	-15.0555
vi	-15.0582
fully	-15.0584
pi	-15.0587
ined	-15.0587
llen	-15.0599
▁tow	-15.0633
hout	-15.0648
▁addi	-15.0674
rst	-15.0698
nation	-15.0734
mple	-15.0736
elli	-15.0743
tories	-15.0751
rif	-15.0793
pun	-15.083
nob	-15.0846
being	-15.0853
emption	-15.087
rally	-15.0892
immed	-15.097
hist	-15.0971
ently	-15.0971
eating	-15.1052
▁sca	-15.1149
amo	-15.1155
tho	-15.1182
ein	-15.119
▁pos	-15.1237
pit	-15.1255
call	-15.13
several	-15.1311
sch	-15.133
edia	-15.134
close	-15.1354
rter	-15.1361
▁ve	-15.1414
growth	-15.1427
cu	-15.1551
minati	-15.1563
▁exclu	-15.1627
▁circulati	-15.1638
▁domina	-15.1654
eed	-15.1664
▁faci	-15.1714
▁ic	-15.1717
past	-15.1718
ebo	-15.1739
rid	-15.1757
▁bett	-15.1788
five	-15.1793
drew	-15.1797
cl	-15.1847
plans	-15.1857
evised	-15.1863
second	-15.1886
ready	-15.1953
rand	-15.1967
▁opt	-15.2
inn	-15.2116
current	-15.2119
aim	-15.2154
ounce	-15.2162
mad	-15.2239
kas	-15.2255
number	-15.2258
▁han	-15.2291
isher	-15.2374
▁smi	-15.2402
never	-15.2451
▁hone	-15.2496
sent	-15.2521
▁hid	-15.2542
▁mur	-15.2588
▁evaluati	-15.2596
iability	-15.2597
director	-15.268
imum	-15.268
tenni	-15.2698
concern	-15.2727
paper	-15.2728
▁em	-15.2737
zard	-15.2738
few	-15.2752
▁cen	-15.2826
treasury	-15.2853
service	-15.2879
▁marl	-15.2884
sold	-15.2884
help	-15.2889
rical	-15.2964
dds	-15.2966
esti	-15.2998
▁unan	-15.3015
california	-15.3083
ht	-15.3103
▁indicati	-15.3114
lt	-15.3128
banks	-15.3181
▁iv	-15.324
bill	-15.3277
fs	-15.3277
▁es	-15.3303
dentified	-15.3312
arn	-15.3321
ears	-15.3323
contract	-15.3354
former	-15.3405
alked	-15.3427
think	-15.3498
ntends	-15.3513
traders	-15.355
small	-15.3552
▁trib	-15.3635
icate	-15.3651
friday	-15.366
enson	-15.3682
quake	-15.3687
ain	-15.3701
▁opposi	-15.3712
head	-15.3772
*	-15.8461
/	-15.8462
4	-15.8463
\	-15.8464
2	-15.8465
9	-15.8466
1	-15.8467
